[PAD]
[CLS]
[SEP]
[MASK]
[UNK]
!
"
#
$
%
&
'
(
)
*
+
,
-
.
/
0
1
2
3
4
5
6
7
8
9
:
;
?
@
[
\
]
_
`
a
b
c
d
e
f
g
h
i
j
k
l
m
n
o
p
q
r
s
t
u
v
w
x
y
z
|
·
¼
½
à
á
è
é
‐
–
—
‘
’
“
”
##o
##d
##e
##n
##a
##p
##t
##i
##v
##s
##r
##c
##l
##u
##h
##m
##k
##y
##f
##w
##g
##b
##x
##q
##z
##5
##7
##0
##6
##9
##1
##j
##2
##8
##3
##4
##é
##è
##á
##er
th
##in
##on
##ar
the
##en
##es
in
##ur
##at
##ed
##nd
##or
##ing
##it
##al
to
##ion
##ro
and
of
##an
##as
##il
our
we
##ec
##ent
##ic
##re
##st
re
##om
##is
##ve
##ly
##ter
##ill
##et
##th
ex
qu
##ear
con
for
##ver
##id
##arter
quarter
as
##ut
st
##ct
##ment
##ce
year
##ig
pro
on
##illion
##ow
##ate
##ect
com
##us
##ation
inc
##ul
##ol
##ith
##ir
with
##le
##ue
20
##ri
million
##ess
exp
##mp
be
##ust
de
wh
cont
##pp
##est
that
##ort
##ain
gro
##ers
##ity
al
are
is
##ge
sh
##im
mar
se
an
this
ad
202
##and
str
comp
##reas
##ven
##ab
##os
imp
co
by
##igh
##ad
grow
##ts
per
##ive
##ial
##ch
contin
##rom
res
from
was
increas
##ance
##ou
##ap
##ong
at
op
##ition
##act
growth
##ay
##ies
ne
##uct
su
ha
##se
##ere
over
le
##are
##ated
##ore
ac
##lo
##am
will
##li
##ac
have
en
##ot
##um
expect
ch
##qu
##ast
bus
##iness
or
business
##ant
##vid
##if
tr
##age
fo
oper
rec
##ich
##orm
high
sal
##ket
##io
##ud
##el
which
##un
##em
up
market
##ating
bas
##ning
##ome
resul
reven
strong
sales
pri
##iz
##ions
share
app
inv
cap
##art
##end
##ll
##gin
##form
##iv
##all
##ond
##ip
pr
##gh
##able
prod
lo
fir
sec
##ments
continue
##so
##ans
##lud
ab
mo
first
ear
##ure
were
rem
##rou
product
##ist
new
##ine
##low
more
cas
##ital
dec
pl
2021
##ations
continu
##ustom
custom
##ff
impro
invest
##anc
dri
off
cost
##uring
us
##isc
add
revenue
appro
also
rep
##ther
out
comm
second
##gr
it
##ard
##ities
adj
last
##ally
##ility
these
##ign
adjust
cash
fin
cons
2020
##ak
##ok
##oin
##ss
net
margin
compar
un
wor
operating
sp
##imate
bo
##rough
man
##fit
impact
includ
well
remain
##out
increased
supp
through
part
cl
basis
low
prior
##ird
##enc
third
int
adjusted
##ile
results
##ving
than
not
end
increase
act
tim
four
rel
##gy
##00
ret
pos
##ice
pre
dem
has
higher
##lect
##imately
all
##ific
approx
##vel
##urr
capital
ser
perform
##ack
earning
now
##ight
##ail
##set
me
approximately
during
ag
billion
go
earnings
compared
poin
##ide
ter
##ens
ind
##ag
eff
te
seg
addition
ful
fourth
work
##eng
so
##own
sign
provid
##ie
##ene
##ber
term
customers
##ree
level
sa
demand
##urn
while
performance
##ates
deli
am
due
deliver
##cess
trans
inter
compan
##op
see
ref
he
strate
rate
li
curr
gre
sol
##tal
covid
income
##ert
progr
ve
##ary
##emic
total
serv
you
##ential
about
fe
improve
gen
##ence
##verage
financ
lower
br
port
signific
significant
red
##ange
##oun
##andemic
sl
pandemic
gu
full
201
continued
gener
##ater
##ross
segment
##ved
result
##cus
points
##rib
driven
##ative
##ax
##ory
dig
mon
##ace
##ents
focus
flow
##up
cr
##ord
across
val
company
financial
disc
##uld
10
team
vol
been
both
##bit
##ward
bene
und
##ery
##fol
related
but
##ices
down
benefit
##ribut
##od
some
into
reco
##ject
portfol
##gan
19
fisc
fiscal
ebit
##av
position
long
time
##ose
costs
##da
acqu
##ach
##ily
very
##der
other
##ues
their
ann
portfolio
decl
guid
bu
##arg
markets
##ual
##mar
tax
##ors
indust
under
##ortun
##ame
including
opp
2019
##ech
##ke
##ined
##ry
opportun
##ecut
##ical
##ake
guidance
exc
expected
volum
##ense
##eri
##lie
current
ebitda
levels
month
##uc
non
reflect
bal
one
##ase
bet
##ix
##very
##ite
reg
look
##ency
##ability
offset
di
can
back
12
support
plan
acc
value
belie
##ould
experi
had
##ivity
return
organ
##ational
profit
##fer
slide
##loy
lead
##ib
ke
##bt
##iod
##tion
##ures
glo
execut
acquis
acquisition
period
glob
tech
years
env
products
##ized
believe
hal
2022
##old
##iron
supply
environ
project
customer
do
how
##itive
##ult
half
equ
##ization
##ious
tw
##ful
range
record
techn
##ially
##ective
##ength
##ings
##ives
##str
debt
##day
environment
##aint
inf
##ind
##ild
interest
most
dep
manage
two
##olo
primar
primarily
report
strength
like
consum
init
chall
revenues
vers
##ric
program
investments
##ased
##ize
15
provide
decreas
call
versus
brand
ll
##urch
exce
11
balance
##lop
gross
line
expense
##arge
investment
des
##urning
sub
commer
##res
##xt
fut
strateg
##velop
global
rest
ec
recent
future
today
##icip
##ia
technolo
##und
##ep
##vers
##alth
##ise
##ention
additional
30
average
solut
challeng
expens
fur
##cial
##hip
they
asset
expenses
based
there
improved
##onom
##ilities
hel
same
businesses
develop
trend
further
est
operations
##ade
##oss
build
organic
improvement
strategy
start
##let
chan
##its
mid
near
pay
##our
##ire
##ract
000
##uction
emp
next
##ough
import
cred
loss
##uss
##pr
ple
continues
##avor
ro
##ck
health
overall
##ays
mod
sy
rates
ga
three
discuss
adv
no
13
sc
##ous
its
expand
econom
ach
achie
resp
margins
industry
price
turning
key
initi
##vious
services
opportunities
when
forward
free
##ting
gaap
service
months
just
progress
##als
solutions
ant
digital
fac
ass
management
exclud
positive
prop
activity
##look
would
outlook
21
credit
##her
help
sequ
suc
##ass
##ks
important
amer
where
##ish
25
col
many
volume
strategic
##ler
##ici
##ergy
grew
sequential
complet
num
comb
ext
rev
##ics
commercial
cre
anticip
14
repres
ev
fr
recovery
##icing
acce
let
##ead
mater
employ
##hold
##ited
production
##iven
##ember
contribut
drive
success
americ
chain
large
clos
##ost
##ems
again
need
previous
real
##ines
##ident
dif
##iew
pe
att
fund
af
rat
she
what
##atives
fact
technology
##ound
fl
top
partn
mom
energy
acceler
commit
pers
##tions
##amp
remains
##les
##avorable
em
invent
##ted
22
conf
dis
##ov
spec
maint
sever
those
increasing
core
dist
av
ris
working
##iss
pricing
moment
sheet
decline
divid
cli
##aking
##we
mention
better
within
##holders
la
##aging
bro
##arget
target
##ular
pleased
16
cor
commun
dividend
gain
focused
increases
##ope
ph
##ustain
leverage
given
sustain
initiatives
consumer
##orts
begin
dil
##fore
consist
few
annual
##ld
##round
expectations
date
experienc
##ced
retail
material
##quid
liquid
announ
trends
pres
plat
##ick
##read
times
sin
##lement
##ertain
17
delivered
employe
platform
18
##nov
dou
50
after
##ality
mentioned
spend
effici
##lation
head
ins
ut
nor
##ership
##led
saf
mix
##ason
since
##ress
offer
good
excluding
loans
syst
home
innov
shar
impacted
effective
past
##one
constr
ago
##ruct
reduc
##lic
ratio
made
actions
number
even
inventory
may
##ower
allow
challenges
dilut
take
reported
around
car
##other
point
process
det
intern
growing
still
##ible
liquidity
favorable
only
##irect
##cent
highl
world
doub
##ata
avail
##ci
several
coun
any
partially
accoun
moving
another
repurch
saw
##go
assets
##stant
##ever
transact
##ision
loc
met
##stand
before
##ank
loan
upd
##head
sm
solid
##aw
elect
development
bec
great
industri
norm
##abilities
open
direct
##line
cond
desp
##lier
##ween
broad
despite
momentum
between
var
experience
certain
##fact
day
detail
##tim
looking
however
currency
iss
diluted
##cc
distribut
consistent
north
ability
power
capac
each
##olid
##ons
volumes
short
tra
31
lif
data
enh
chang
throughout
contract
cent
capacity
##ned
maintain
being
aut
economic
digit
gr
differ
book
quarters
jo
q3
inflation
sing
store
##going
##nel
efforts
continuing
model
##pt
expans
going
percent
ahead
##wind
##pl
such
##mental
normal
pot
ongoing
nearly
##wor
es
capabilities
##ale
100
##ium
##uch
q4
early
enter
pat
set
stor
##itions
single
23
40
shareholders
leading
##aged
represent
##ock
##iel
significantly
finally
ma
larg
neg
base
eur
##gage
prem
potential
##abor
includes
benefits
q2
manu
count
##ove
mult
##ield
manufact
unc
optim
earlier
make
##formation
double
24
fol
##unch
asso
associ
equity
turn
decrease
expansion
every
med
##standing
partic
decreased
rece
included
seeing
ar
##mm
declined
particular
##ateg
segments
reduction
q1
wee
##ases
categ
above
occ
acquisitions
fle
best
##ft
propert
##uce
hist
follow
##aus
combined
##por
employees
##ination
announced
ow
##ub
launch
operational
peop
generated
close
projects
previously
america
opportunity
win
##ied
season
##red
positioned
##ages
maj
del
europe
mat
major
group
##ling
sell
anticipate
quarterly
meas
##ety
move
par
sequentially
gas
##erg
##ink
inte
##hic
clients
##ption
rol
compet
meet
integr
experienced
industrial
35
state
tal
mean
##air
##oint
kn
##anced
conditions
##ump
want
##ili
secur
care
order
less
##remental
them
##loc
##gn
prices
people
should
outstanding
min
##rup
quality
slight
##ories
requ
brands
##une
rene
exist
improving
mort
led
##uary
##vern
struct
##iting
##ional
negative
show
include
distribution
relative
purch
pip
execution
recently
risk
driving
##ex
march
building
rob
reduced
renew
saving
##eline
exceed
items
reflecting
##ibility
##ights
##ants
##ically
govern
incremental
dr
##bs
##ty
consolid
press
stock
five
recogn
##get
get
successful
aff
rent
did
track
if
bank
foot
##work
corpor
##ves
international
review
headwind
my
27
##nect
26
reflects
available
##eo
##log
##izing
able
##lev
##onstr
seen
run
percentage
ord
demonstr
##yc
##ural
existing
use
##ired
backlog
june
currently
##urance
change
manufacturing
who
savings
form
channel
##br
then
vari
much
teams
way
shares
receiv
completed
##ina
prot
orders
60
meaning
premium
resulting
could
clear
robust
particularly
confident
sur
approach
contro
achieved
##rem
##ertaint
##ready
marketing
already
ended
##ount
areas
vac
along
generation
28
shif
toward
##ely
##ider
providing
sept
##aly
associated
enc
sect
labor
disrup
meaningful
##ening
relations
september
corporate
forec
changes
spending
##ral
slightly
##tern
making
pipeline
factors
##ission
highlight
small
au
##lying
coming
different
defer
construction
resid
##ang
deploy
##fic
##par
##uly
achieve
sch
##rast
uncertaint
right
innovation
programs
reser
safety
##bers
stand
facility
##ising
def
stores
uni
sim
productivity
collect
connect
##ause
flat
sg
discip
impacts
life
transaction
excell
person
special
active
fully
##ior
##ructure
consumers
##ably
ent
##ances
beginning
offic
examp
system
consolidated
hand
post
infrast
know
note
access
dol
compens
##ont
remained
summ
infrastructure
greater
crit
largest
encour
losses
##aid
yield
delivering
ob
returns
orig
timing
implement
prof
##ipment
additionally
##ra
##yond
sale
alloc
enab
reduce
excited
autom
forecast
largely
estim
depos
##itures
improvements
compensation
days
##osp
oil
##per
challenging
commitment
90
##row
##ished
needs
gains
lim
##ually
below
pur
##ured
regard
200
stronger
companies
effect
profitability
reach
ens
beyond
##asing
rein
##ified
plans
board
flex
underlying
div
##encies
december
place
##rec
##ised
coup
update
##ey
##yp
80
cal
consider
45
75
activ
attract
test
serve
inst
##ief
chief
found
recover
resulted
officer
##que
address
vir
##ilar
nat
##ather
squ
ten
specific
vehic
discussed
util
proud
vacc
pub
divers
communities
remaining
measures
##edic
similar
metric
regul
week
##lined
ste
29
air
six
provided
china
square
histor
70
hous
applic
terms
##less
##sc
32
##rop
here
own
lines
partners
selling
control
said
mortgage
travel
hard
equipment
fil
critical
##ell
network
##ancing
think
bring
id
expend
##ces
fue
substant
advant
analy
ra
##itt
president
##ented
occup
constant
elev
government
##point
##down
##ancy
insurance
resili
put
##oud
pass
systems
residential
##anch
digits
##grap
water
space
keep
agree
far
##omes
##iation
represents
buy
food
activities
sen
cloud
class
because
step
scale
quick
unique
lease
efficiency
##ware
##idence
##way
anticipated
mem
typ
generate
general
added
committed
soft
restruct
cle
##man
closed
##ols
property
though
fore
bill
cyc
##istic
tak
common
example
come
quest
apr
leadership
office
deal
moder
##oughly
confidence
structure
fix
expanded
april
region
origin
##pective
restructuring
leg
restric
center
33
provides
expenditures
land
facilities
relationship
against
local
states
enhance
transition
##yn
500
##lus
##most
roughly
##gine
following
conc
##te
issu
##for
online
esp
##lar
extend
##gether
fre
weather
vis
cour
investor
indic
technolog
starting
used
##ness
##ator
view
electric
##side
##port
transformation
geo
jan
almost
pati
dollar
design
espec
bar
temp
headwinds
##ration
execute
hold
especially
assum
together
clean
really
convers
compon
##pping
##ott
comparis
healthy
sustainable
competitive
prom
spe
july
unit
longer
dom
##though
although
##care
wr
senior
contributed
##atory
create
##ceed
occupancy
foreign
36
##int
slow
expanding
##inder
importantly
january
later
lever
materials
modest
technologies
categories
exception
perspective
geograp
fixed
investing
estimate
economy
excess
taking
##ron
information
paid
elevated
pol
55
##ened
transport
nav
plus
##itig
remainder
ever
metrics
##ream
highlights
sustainability
offering
category
reminder
##ier
accelerate
public
asia
sour
37
engine
amount
closing
uncertainty
comments
cat
highest
purchase
exch
resour
partnership
allocation
sou
dro
once
mark
nine
healthcare
combination
fam
##aff
##fo
abs
talk
flexibility
executive
##perform
extrem
pace
##ynam
pack
##hol
34
cover
adm
prim
payments
repurchase
38
##orrow
oct
goal
delivery
ensure
##uctions
##imp
client
advantage
##aim
trad
##ining
65
dynam
protect
page
details
##bon
charge
##issions
exchange
##ober
excellent
october
beh
commerce
raw
ship
##urring
fuel
rele
fees
simp
side
accelerated
shift
refer
issues
received
log
respective
dividends
repurchases
##verse
safe
##edul
reb
priorities
taken
majority
units
benefited
charg
produc
totaled
42
highly
diffic
entire
attractive
difficult
whol
course
main
300
feet
##ators
estimated
schedul
restrictions
cult
planned
##lt
play
##pect
transactions
claim
maintaining
hot
began
deep
amort
comparable
sit
##rod
proceed
transportation
##arm
noted
attribut
partner
award
##ian
strategies
regarding
39
borrow
##ently
ess
mac
##holder
repl
emerg
properties
midpoint
##ively
join
leasing
lat
front
engage
estate
enterpr
multip
natural
accom
##vert
members
fed
disciplined
priv
footpr
representing
##oming
offerings
capex
fee
essential
organization
pressure
##ables
##ending
el
portion
##wide
footprint
domest
capt
please
quickly
align
sold
##iate
vent
ed
utility
drove
##ilt
drivers
lastly
spread
sector
##alu
navig
amortization
mitig
exceeded
cycle
##ph
launched
say
encouraged
national
##eral
##ify
big
using
managing
social
late
##ways
assump
franch
successfully
po
accounts
respectively
communic
dev
2023
ppp
##els
tempor
##ios
##wr
unt
conversion
final
##ighted
prin
events
goals
availability
virt
rig
multi
enable
##put
##acy
reflected
multiple
##aster
payment
initial
evol
applications
charges
esg
##istics
divest
aer
##bo
bl
came
reli
domestic
##land
financing
##place
agreement
bott
mil
volat
likely
community
remar
face
##orn
recorded
introd
enterprise
##itor
constrain
extremely
housing
85
outperform
specialty
##force
##aur
propos
revol
matur
sk
case
flows
complete
regulatory
select
shareholder
restaur
##erv
carbon
mob
acquired
contribution
personal
##onse
response
##reciation
software
reserve
having
mer
job
auth
44
lot
unf
disruptions
your
private
webs
united
give
relationships
##ys
until
area
bre
##wh
profitable
regions
culture
reop
##ament
always
medical
weeks
##ms
among
febr
february
syn
history
primary
43
400
american
promot
hy
limited
read
summary
reducing
recognized
##abl
deposits
integration
auto
relatively
stead
##urred
adop
priority
##ences
done
##ps
##enance
consecut
maintenance
##ides
green
happ
poss
declines
consecutive
expos
reductions
staff
##otive
doing
account
rap
require
##earch
stay
underwr
employee
vehicle
rapid
weighted
affect
started
macro
website
proceeds
invested
##ittle
notes
substantial
little
41
evid
establ
ident
fun
supported
48
polic
homes
platforms
investors
locations
aug
##ane
don
##ering
stable
purs
least
expectation
operate
planning
funding
##ike
plant
enhanced
utilization
executing
larger
optimistic
deferred
particip
47
author
cases
##rel
coll
light
##back
evalu
defense
tri
150
banking
bri
##pos
dedic
##lock
sci
channels
become
46
prov
returning
questions
resources
##ner
without
valu
hope
took
feel
franchise
efficiencies
parts
south
hosp
camp
pressures
retention
built
bottom
underwriting
refin
country
securities
##ave
represented
profile
incent
subsc
95
advance
freight
##ension
ramp
##emp
minim
innovative
##iring
announce
princ
his
inclus
generating
supporting
returned
various
leveraging
logistics
things
advanced
sett
##reg
talent
commod
positions
##ospace
aerospace
princip
decision
stake
offs
##isions
accounting
transform
contracts
##ef
fleet
pros
upon
##ival
event
automotive
admin
reason
strengthen
wind
solution
53
yet
##az
accelerating
traff
rebound
hear
max
traffic
administ
2018
helped
foundation
exceptional
stud
eas
##ico
object
realized
profess
##ood
52
tail
##aut
respect
hospital
pen
differenti
federal
##ters
##abil
##ensive
balances
guest
monitor
specifically
##ash
deposit
recurring
does
funds
content
enabled
finance
ult
canad
lear
trail
##iving
bringing
modern
generally
57
shipments
environmental
impress
adding
respons
role
comparison
annualized
wholes
ways
##itut
sw
accompl
##ries
emissions
cris
unpr
efficient
adjustments
##enced
helping
##downs
owned
tenants
august
taxes
capture
ffo
om
temporary
inflationary
analyt
##oc
equival
renewable
creating
storage
historical
assumptions
expert
drill
##riate
shut
##market
journ
attributable
effectively
##umption
possible
wholesale
##ape
barrel
globally
organically
faster
implemented
leader
seven
driver
tight
mind
lock
closely
bond
approp
couple
##co
targeted
subscri
##by
discre
negatively
bit
integrated
highlighted
engagement
##eced
clearly
comment
periods
updated
components
leases
patients
##etic
##pped
release
crisis
prefer
path
exposure
appropriate
stream
51
ceo
storm
noi
risks
##itional
summer
##gress
workforce
constraints
dur
incred
created
wal
issued
claims
49
vehicles
centers
respond
##sel
prepar
##uck
targets
unfavorable
##aining
marketplace
bookings
rental
nove
58
##mber
##ered
disruption
november
depreciation
600
altern
projected
##att
speed
54
journey
remarks
joint
prep
##ru
imm
actual
accord
held
shown
outc
##ification
extended
vice
##vest
demonstrated
outside
deployment
volatility
trem
provision
62
standard
expertise
ap
reporting
discussion
achieving
pharm
##ea
##iforn
##endous
californ
##ee
touch
phon
packaging
tremendous
california
sho
pract
merch
56
pac
research
operation
pick
##ism
executed
broader
discipline
virtual
weak
##ulation
cho
analytics
mill
##hing
size
reserves
collabor
##reat
tools
contain
variable
behind
approv
initiative
##ero
rising
legacy
unpreced
unprecedented
compr
250
stim
commodity
normalized
allowed
geograph
effects
card
##ecess
assist
numbers
increasingly
mobile
##hous
maxim
live
##pects
steady
hour
retire
steel
stakeholders
##dle
##tive
meg
family
fast
##iture
phase
fair
countries
raising
brief
aggress
completion
59
##ring
signed
phys
delays
coupled
west
holid
##ins
accre
fall
stabil
star
compares
exciting
materially
trailing
##king
party
phonetic
##imin
advis
stimul
repurchased
aust
find
electron
statements
vision
institut
site
renewal
uncertainties
traditional
mainly
eight
confer
performed
##ivid
persist
necess
##greg
##lex
##cing
##gest
needed
adoption
##ute
consult
dollars
##roll
2025
geographic
63
##los
strengthening
install
venture
aggreg
middle
certainly
excellence
ce
har
experiencing
individ
heav
afford
upgr
performing
posted
predic
consumption
action
substantially
required
stimulus
incurred
##lows
original
color
66
61
hed
##ai
internal
replace
advert
caus
gives
##ended
force
sum
firm
mission
americas
canada
sens
deter
creation
wins
seasonal
shortages
synerg
contributions
allows
premiums
diversity
dynamic
##tc
approved
desc
component
emerging
tailwind
expl
automation
##thing
historically
cur
capitalize
changing
ready
options
inventories
processes
rating
steps
navigate
deals
sem
extra
peak
patient
bud
##aces
commission
winter
shows
teens
vaccine
##iber
field
sn
fundament
sustained
67
pop
security
visibility
flo
collections
professional
mitigate
individual
list
##agn
utilities
recall
arr
##ger
input
##ordin
frame
industries
house
impressive
eng
established
budget
73
testing
incentive
##ork
coverage
subs
76
tex
technical
assess
calls
demonstrate
##ah
suppli
stat
effort
funct
rents
meeting
pacific
##sequ
reached
subscription
texas
##irm
##izations
favor
fiber
link
resilient
64
european
recognize
diverse
media
72
##thers
synergies
running
##ns
rose
truly
subject
##anged
dynamics
opened
collection
holiday
##coming
##board
differentiated
bat
##ton
trust
comparisons
staffing
##ades
operator
optimize
settlement
##fill
proact
##aced
##endar
serving
##aily
agency
aftermarket
dispos
resilience
megaw
hit
never
unch
calendar
everyone
##house
##fort
##ime
actually
policy
##pose
daily
##endent
managed
entered
maturity
rapidly
lab
##liance
restaurant
lic
delay
describ
##mission
closures
produced
requirements
fy
mex
regional
joh
medic
unchanged
cross
##tery
introduc
##ately
##aper
objectives
77
##ug
feat
experiences
78
ir
question
priorit
commitments
rollo
devices
necessary
suppliers
ill
others
zero
supplement
##angible
aver
disclos
enabling
means
shared
getting
affected
##apan
japan
news
notably
benefiting
##wer
impair
actively
##ises
adap
diversified
drilling
##ude
earned
balanced
##iveness
acceleration
filings
fx
##elling
worth
detailed
hotels
##inqu
##pper
road
87
complex
delinqu
estimates
conclud
96
##ored
comfort
room
typically
68
##view
ground
neut
option
remot
omn
signs
purpose
retirement
shi
02
700
impacting
worked
solar
exceeding
advertising
93
##ibly
##rative
tenant
##ush
smart
800
block
outp
encouraging
pul
wire
plants
request
connected
division
cir
fort
directly
##itten
mot
proven
produce
treat
##ury
adjusting
provider
carry
associates
sectors
caused
##ient
clin
fundamentals
71
gl
##aign
##oring
##thern
##akes
92
amoun
consistently
campaign
merg
##atch
offsetting
ultimately
##sh
##lif
finished
reins
situ
preferred
84
cut
mostly
enhancing
essentially
according
98
##yl
prud
values
guests
accomplish
ther
totaling
developing
86
97
york
therefore
grade
05
74
81
somewh
directors
absor
amp
##he
meaningfully
holding
grown
administrative
rollout
quite
workers
sites
circ
allowance
engineering
walk
ban
##gen
designed
written
mexico
##ta
obvious
intend
grad
application
revolving
94
paper
san
##stream
decade
feed
dedicated
neutral
##has
index
linked
120
assumes
##ution
deliveries
positioning
contribute
optimization
smaller
aud
bad
wide
##ging
transl
partnerships
retailers
maintained
science
char
latest
penet
conference
##ars
prospects
sat
##be
continuous
measure
communications
83
uncertain
securit
schedule
awards
educ
##selves
apprec
finish
opening
tom
repair
##yst
##resh
emea
alternative
##rals
indep
developed
milest
##ugh
##ediate
##rific
prec
expecting
protection
##rought
fulfill
scho
limit
summar
away
caut
rise
reit
ask
pursue
##ilies
##reh
proced
true
decisions
adjustment
liability
meth
families
aw
##enge
traject
joining
##ession
recognition
resum
chair
challenge
approval
03
5g
compreh
strongest
usage
transmission
79
shop
130
processing
modestly
outcomes
69
india
##echan
yields
proposition
merger
contributing
funded
comprised
geographies
structural
inclusion
mig
stated
emphas
allowing
reinvest
merchand
determ
reinsurance
##ds
##yle
why
complement
rede
pet
trajectory
yes
colle
filed
88
cfo
eps
##sis
##ble
ending
fewer
present
concer
nice
spot
excludes
comprehensive
instr
operators
spring
notable
updates
01
##yal
##lements
paying
prepared
subsid
john
nation
##izes
presence
agreements
aggregate
bear
focusing
110
hum
pension
##con
##idge
##ires
##lig
capability
dram
foods
speak
maturities
restaurants
pursu
learning
austral
extraordin
99
east
sup
repay
outlined
central
shopping
framework
mechan
##atic
##olf
insights
typical
latin
##arily
##ained
leased
keeping
##oor
##over
##lf
convert
2024
##lied
recon
raised
source
somewhat
secured
deferral
##raft
starts
satis
lag
evaluate
bio
living
mand
happy
89
82
rang
##bor
##illed
dolby
vert
stre
stri
alone
trade
nonc
nature
barrels
##eff
slides
faced
semic
controll
som
subsequ
targeting
consulting
pp
##ones
leaders
purchases
assuming
authorization
relev
training
scheduled
##onduct
wells
downt
##urs
##action
load
money
thought
replacement
practices
situation
penetration
semiconduct
91
lending
pill
##ng
draw
ensuring
##ext
flu
tit
##wear
realize
worldwide
separ
climate
strengthened
followed
deferrals
reopening
makes
##lies
##osyst
casual
credits
140
emb
goods
protoc
too
box
duration
immediate
##enn
##ether
secure
frequ
accretive
tons
##arant
ecosyst
revised
enables
physical
her
flor
issue
winning
evolving
reliability
##po
compound
compelling
relates
elimin
mach
##atts
self
mike
oem
##ath
relie
joined
obviously
resiliency
city
ton
##ying
stage
comes
coast
brought
##drop
##itch
##itors
atm
chec
shipping
##ither
upcoming
closer
aligned
rigs
impairment
independent
##aps
electronics
predict
wealth
##etime
incor
braz
understand
shifting
recyc
conserv
statement
virus
legal
hotel
revolver
##ban
exit
whether
overview
##acing
remind
facing
delta
inclusive
discretion
models
##omm
lean
##ict
extern
developments
variant
oblig
sources
thus
##aries
story
upside
backdrop
issuance
indicated
divestiture
##ida
recru
sharing
roll
amounts
chairman
relief
incorpor
ur
context
resol
spent
scen
350
ms
##craft
dele
brings
brok
multif
seasonality
vaccines
dedication
break
protocols
florida
der
##fs
##utes
series
unders
equivalents
##rig
##uild
invol
sports
negot
demonstrates
equivalent
04
##etary
implementation
behav
im
piv
##ris
carri
forecasted
reconc
cy
conver
##onomic
minutes
mortality
considering
extraordinary
ecosystem
comps
promotional
waste
served
##fully
exclude
examples
ownership
monitoring
method
ge
##ench
##arel
##works
outperformance
discretionary
900
either
##annel
##economic
##ichannel
importance
showed
publ
moderate
described
introduced
fit
uns
incredibly
scenar
wes
##ws
aircraft
buyback
reliable
hyd
identify
perm
branded
##ged
perman
located
##omen
##elines
demonstrating
variety
appreciate
pivot
##fr
203
##wards
spreads
macroeconomic
bol
wwe
apparel
battery
##erior
manufactur
section
##rical
lowest
assort
sharp
pattern
mass
##lu
##astic
160
doubled
receive
origination
delayed
vertical
##erge
changed
superior
ida
##year
conven
repe
construct
accounted
evidenced
policies
da
hor
mc
ware
##osition
subsequent
portfolios
receivable
##ience
##ille
haw
##aming
branch
125
known
incredible
maximize
external
unus
receivables
##og
##pass
chart
##cal
##omin
##astrop
exclus
education
##band
##umul
##elf
providers
advancing
positively
showing
catastrop
collaboration
hiring
##terday
resource
prudent
ample
yesterday
bul
dest
##gun
tough
supplier
approximate
nar
##erc
servicing
inflows
becoming
omnichannel
semiconductor
giving
rail
express
##mark
forma
##edd
soon
testament
absol
borrowings
discrete
##organ
purchased
kind
begun
setting
refinancing
announcement
suff
##artment
lost
broadband
dealer
identified
bi
sus
##erve
megawatts
downturn
lay
obs
tier
premise
poly
##ulf
bod
scal
calc
trip
briefly
colleag
vend
##son
proc
truck
dilig
simply
shutdowns
engaged
australia
won
##cket
works
##brid
thoughts
cell
stability
coal
pret
presented
medium
flexible
##ley
loyal
factor
borrowers
hybrid
remote
##inter
offers
monthly
diagn
buildings
powerful
recovered
vaccination
divestitures
reopen
brazil
fire
nike
##agr
efficiently
art
defined
tool
##amily
occur
hours
tur
##rual
slower
modernization
population
household
multifamily
vast
##ervice
establish
street
##eal
moved
emerge
everything
steve
analysis
offsh
reasons
aggressive
subsidi
war
implementing
vaccin
adapt
jim
##wise
seam
translation
discussions
aggressively
reiter
procedures
offshore
##ided
influ
##resp
peers
human
08
push
##ville
stages
terr
corresp
reaching
correspond
sure
##tain
outd
institutional
via
##aight
##ten
straight
transfer
strategically
revpar
entering
foodservice
##of
##jo
recap
acquire
buying
producing
biggest
virtually
affordable
##loyment
180
##atically
##ection
adverse
networks
declining
insp
shortly
borrowing
choice
reconcili
david
ourselves
beverage
unemp
financials
conduct
deployed
relevant
lives
chemic
globe
exceptionally
edge
advisory
treatment
clinical
colleagues
onset
released
seamless
left
seek
univers
licens
instru
ger
metal
park
multiyear
black
valuation
treas
##ona
projections
numer
supplemental
cautious
nim
competition
wanted
emergency
06
got
talked
whole
volatile
illust
absorption
gulf
tangible
##ask
lots
ratios
permanent
unemployment
concent
location
connection
heavy
bench
cance
eth
fresh
uk
##bur
##rietary
intell
guarant
employment
putting
commentary
averaged
##utical
compliance
chris
strongly
##aceutical
regular
proprietary
lockdowns
must
name
##ges
conv
##umb
rather
170
safely
grid
milestone
##ek
outs
manag
supports
realization
occurred
surge
device
rights
##ne
##cu
deeper
vess
agility
accrual
electrical
450
originations
bearing
numerous
gall
las
tel
##zer
compress
entertain
sourcing
favorably
somet
stack
traction
##ology
lifest
principally
school
negoti
ho
##itude
deg
##iesel
transpar
challenged
extent
governance
raise
medicare
undersc
wood
##ecured
##ston
opt
earn
transit
profits
unsecured
sent
wave
##lines
##ino
often
sun
termin
minimal
07
bid
went
##sour
newly
remark
valuable
standards
proactive
conservative
##aren
annually
innovations
title
drop
tend
##af
additions
payroll
responsible
merchandise
territ
aim
hurr
round
sil
enjo
match
easy
pickup
function
hydro
##ites
##igning
surpass
awarded
pm
##iced
amaz
jobs
competitors
entertainment
hurric
elements
vide
##ik
shape
unlock
southern
member
##east
##west
##oration
cares
bon
##tech
##cs
qual
forb
extension
utilize
accomplished
prepay
assortment
##umulative
wa
##ux
operated
##unt
records
called
30th
takes
wireless
accordingly
procure
intellig
bread
cumulative
women
forg
clar
2017
gaining
susp
illustr
nam
##edi
enroll
bob
bridge
cann
horiz
lifestyle
rank
tell
##ho
##ared
stress
renewals
regulated
analyst
evident
pharmaceutical
heavily
##interest
quant
usual
noninterest
direction
assumption
diagnost
##ula
accident
factory
simplif
evolve
frequency
behavior
ren
watch
ans
##elt
offices
guide
##time
diversification
students
western
super
upt
reports
type
summarize
loyalty
outdoor
09
mich
##icket
evaluating
pharma
published
german
fri
pa
##mod
##umber
appreciation
securitization
repeat
narrow
hon
wild
users
underp
depth
residents
recovering
owners
trading
evidence
tailwinds
satisfact
fluid
check
appear
item
attention
normalize
minus
uniquely
campus
casualty
hawai
dan
diesel
tied
##uity
##bre
##ster
organizations
environments
scope
easier
breadth
pump
##lant
##ody
groups
enhancements
indicators
proposed
staying
proactively
ticket
wall
##van
##ores
homeb
matters
dave
pent
##flows
spect
manner
retain
forecasting
cleaning
delever
men
revers
suite
prev
docu
phil
rolling
advantages
administration
mun
sense
tank
coven
secular
attend
severe
utilizing
outperformed
fortun
fulfillment
friend
agr
mut
rich
height
booked
curve
convertible
machine
pretty
might
discussing
difference
launches
surve
reinfor
addressing
reference
bonds
banks
video
conce
spons
affili
legis
assume
furn
mic
reaff
remember
workplace
diy
completing
optimism
arm
farm
temporarily
authorized
principal
prioritize
pending
restart
helps
gained
insight
broadly
landsc
objective
upgrade
comfortable
embedd
hol
##ba
leads
tracking
controls
navigating
mobility
ranges
catastrophe
hill
##alized
ebitd
aviation
buyers
rv
sug
placed
##ensus
discount
economics
optimizing
participation
landscape
ori
##nes
##pc
##urg
washing
agencies
valid
measured
weakness
accomplishments
pursuing
rout
flavor
standpoint
wrap
named
satisfaction
miss
##hi
##around
##ecl
##isure
reposition
##ensity
refund
rolled
footwear
historic
types
synergy
ltc
mis
vi
##itary
ups
remod
capitalized
facil
turnaround
visit
assessment
dramatically
ath
gold
host
##off
##amental
##hes
reim
electrific
potentially
circum
absolute
marine
##ipher
puts
leveraged
broker
facilit
electrification
##ney
##count
##oke
fundamental
write
glass
therap
patterns
reaffirm
circumst
wage
##ighter
user
interact
consideration
recoveries
outcome
washington
search
headcount
grant
stands
defin
covered
something
embedded
dry
fif
ip
liabilities
190
opportunistic
220
purchasing
##ifying
assistance
migration
redevelop
cad
ver
##hy
##fect
fores
adjac
heading
constrained
incentives
feedback
awaren
warehouse
awareness
dining
pse
##vin
##ats
spaces
department
deploying
communicated
status
##iti
compos
bright
excluded
personnel
filing
military
container
reiterate
bonus
circumstances
vary
##more
prob
export
beaut
115
arch
launching
conclude
procurement
answer
hawaii
cp
##ulated
contracted
license
den
##icult
##ateful
uses
##sco
originally
convenience
exclusive
degree
eag
golf
rul
##ma
react
exerc
grateful
greenhouse
floor
##uilding
municip
session
##to
##ark
##ental
cop
volunt
otherwise
lift
talented
mitigation
disclosed
motor
remarkable
horizon
er
rad
##rum
##state
leisure
roe
encourage
principles
triple
hurricane
fig
jeff
lng
##aters
##acter
intangible
law
230
standing
extending
idaho
age
crop
mess
##uctu
decades
unre
progressing
fluctu
shortage
contractual
240
renewables
electricity
participants
operationally
resume
urban
fill
gaming
pi
##rition
##ortion
boston
underway
payout
##icient
##icians
matter
purpos
noncash
forbear
##ecipher
indecipher
105
decreases
closure
coupon
considerable
reasonable
scenario
purposes
indecipherable
ari
##eas
reson
nex
embr
integrate
minimum
corresponding
file
fell
length
atlant
pred
crude
##worth
minor
heart
spectrum
agricult
cecl
magn
##equ
##rant
tow
##ica
furthermore
frank
collected
ratings
##front
##gl
coating
baseline
175
selected
deriv
lack
night
enough
boost
210
surpr
approaching
connectivity
750
approvals
electronic
arrange
ppe
enjoy
municipal
piec
cit
nut
pan
##water
onetime
improves
northern
fueled
switch
features
pull
precision
2030
ol
##ature
communication
accretion
cause
##face
##ze
chip
follows
career
renewed
stockholders
virgin
recruiting
unrealized
cm
upper
##aving
##bership
selt
applied
retailer
takeaw
openings
shifted
membership
skill
megawatt
foresee
ease
sle
##dic
##rd
declared
displ
highlighting
package
accommod
profession
underpin
forbearance
ai
##dp
##eless
contributor
chains
shutdown
germany
micro
nuc
##wood
continuation
termination
saas
creates
sets
responsibility
delinquency
wildf
litig
repaid
strengths
engineered
installed
nicely
pillars
cyber
tar
##na
##ming
##field
beer
alliance
anch
resorts
refrig
updating
became
considered
similarly
marked
heard
refriger
cert
os
vital
##raw
inorgan
proble
noting
creative
turned
surg
streams
hedge
character
repayment
suggest
voluntary
icon
shipment
resort
firms
terad
terrific
projecting
distancing
##book
sensitive
fifth
##ew
marks
lowered
undert
cycles
oriented
tower
basin
visits
slowdown
gradual
teradata
thing
reset
wellness
equal
payable
extensive
innovate
centric
connections
alternatives
cannot
beauty
dat
fab
thous
##arbon
anim
##izable
drives
confirm
classes
refinance
manufacturers
thousand
##ograp
compare
deck
##isco
seasonally
consolidation
simple
steadily
fash
jur
##ivers
##lebr
##load
270
minimize
celebr
dam
gather
jers
pil
tv
agile
refining
##entional
trending
modeling
entry
poised
concerns
controlling
fashion
jersey
hub
row
##ued
##antly
##izational
productive
##istically
subm
135
economies
##ishment
addressable
conclus
practice
complementary
benchmark
cancell
forgiveness
remodel
litigation
ey
gear
##tail
##itical
##eth
apple
##ists
##acks
agents
organizational
replen
alignment
ramping
stabilized
##connect
pillar
telec
##ots
##isdic
scott
initiated
escal
sciences
athlet
jurisdic
##itted
asp
##ationally
##iviti
##akeven
succeed
parks
temper
breakeven
attendance
sleep
lend
rational
##wa
tour
recession
supplies
lows
transient
scr
holdings
slowed
emphasis
managers
##pan
##uting
##irus
sport
tele
##ought
coron
internationally
allocated
protecting
evolution
gradually
survey
professionals
aam
##app
##erved
##ction
ones
##aping
promotions
franchisees
responding
obligation
body
hydrogen
uptick
heightened
pict
##ti
ingr
aspects
205
##ota
decarbon
kevin
respir
collectively
postp
cataly
entirely
saying
##while
participate
advisors
obligations
sufficient
transparency
predomin
##top
overhead
agend
accur
corr
absent
scient
trusted
label
##entless
throughput
relentless
lowering
##avirus
accru
counter
turns
assumed
extreme
hospitals
responded
rooms
tarif
coronavirus
lin
ineff
##ensions
seeking
understanding
nonrec
depending
carol
distributor
referenced
individuals
seltzer
old
exited
adequ
unm
##ags
avo
instead
schedules
cement
affordability
upgrad
diligently
cadence
bord
lumber
pow
##ees
##itect
##aco
priced
outages
disability
31st
speaking
miles
migr
reinvestment
buybacks
cam
obt
##lin
##icron
##ifax
financially
equally
distin
mixed
receip
minute
shifts
study
remotely
constructive
conclusion
ok
pc
highs
output
thirds
2015
equifax
elective
restricted
##aneous
brian
prepare
merchant
fastest
immediately
verticals
outsized
cd
felt
spl
completely
france
##ledge
premier
parking
meanwhile
knowledge
durable
upgrades
licensing
virginia
inform
resurg
companywide
laid
homeown
conversations
##where
reopened
vendors
coatings
animal
ep
gap
rot
contact
##ado
leave
##ames
enact
interconnect
redemp
diam
afric
greatest
compete
structures
##performing
omicron
hedging
unusual
surpassed
iconic
agenda
aware
##ulations
timber
flight
corn
yielding
skilled
rebounded
journeys
accordance
bulk
chemical
laser
redevelopment
predominantly
##den
##sr
##tera
##rier
expir
partly
guided
hardware
divested
treasury
clarity
paul
picture
dg
vant
##ha
##flow
##uston
2026
initially
desire
stabilize
emphasize
dramatic
houston
architect
##cf
##cel
computing
2016
insured
pipelines
senti
##aud
##pro
##med
##ground
intent
demograp
agent
dilution
mature
carefully
governments
##ontin
effectiveness
prime
canadian
wireline
atmos
recycling
turb
nextera
inorganic
king
kid
lap
sizable
##lear
exact
##utory
##rive
overc
##emed
retro
##ago
condition
deployments
admissions
introduction
penns
engaging
statutory
##ylvan
pennsylvan
pennsylvania
hire
##cor
##itation
##lip
digitally
powered
expansions
280
thinking
ventil
southeast
harbor
##ugg
absorb
concentr
vessels
territory
adjacent
split
rpo
##vac
reward
apply
annuity
scre
parent
runway
former
receiving
placement
blended
austin
university
catalyst
avoid
him
ib
island
child
parties
demands
employers
mortar
ultimate
learn
fairly
mechanical
cold
gig
jump
##ev
conting
recomm
##ressed
distributed
booking
260
reinforce
else
trial
##ucky
assisted
dispositions
vaccinated
foreseeable
dut
ko
mor
tiss
##ulate
busy
commence
soci
regist
##olog
builds
severity
utilized
happen
subsidiaries
pmt
amazing
##erry
##ana
millions
decided
intensity
acquiring
disp
consists
structured
absence
selection
hospitality
installation
display
fda
##asts
##ete
partial
serves
subur
##iciencies
regardless
passed
550
introduce
milestones
schools
carolina
burn
jack
wides
##pread
##ams
retained
##ifications
goes
taxable
opportunistically
reflective
deplet
submarket
gave
differences
variance
360
navigated
transforming
disclosures
resolution
probably
tire
##haps
##fall
##thus
onboard
groc
perhaps
enthus
##ift
achievement
650
stabilization
snap
delinquencies
petro
satisf
reconciliation
thousands
pilot
vantage
sentiment
widespread
bur
hund
mine
mount
##oo
##ii
##uit
##orter
midstream
itself
reality
requires
recognizing
didn
backlogs
surround
softness
330
catch
commodities
disposition
determined
worksite
homebuilding
resurgence
hundred
master
capable
outage
comparing
refresh
discontin
timely
accept
matt
roles
differentiate
divisions
indicator
frontline
compression
prepayment
renov
nonrecurring
distinct
incur
shel
implies
prel
youn
closings
moments
lesser
talking
pool
introducing
nationwide
msr
diagnostics
inefficiencies
tissue
lux
threat
##reed
##arters
bel
beat
implied
amid
nov
movement
integrating
reviewing
classified
blue
geography
subsidiary
prelimin
b2
cable
fant
table
wider
##ren
##asks
train
agreed
225
originated
ventures
weaker
legislation
eagle
respiratory
enthusi
fro
kick
oems
ran
##de
##ding
##erving
##ets
concess
cook
perfect
levers
##ote
places
unless
##oper
##avors
occurring
surface
passion
latter
transformational
learned
appropriately
manufacturer
facilitate
africa
tre
##eed
##nr
##mo
##stone
consequ
acad
champ
##izer
102
belief
doubling
showc
##pharm
biopharm
##burse
intelligence
enrollment
jurisdictions
preliminary
die
fric
lith
anticipating
##self
##attle
harvest
outpaced
continuously
determine
fantastic
band
gdp
acre
##arden
rock
attributed
provisions
institutions
merchandising
reconciliations
##break
arrangements
younger
friction
bak
nich
##net
##cyc
tob
energ
chines
outflows
retaining
delivers
consumables
progresses
metro
corporation
schu
allocate
320
student
functions
translates
negotiations
deleveraging
surrounding
chinese
element
oce
ppl
##cast
##kn
##gages
stem
##like
##acco
spir
refined
brick
depend
realizing
corning
books
mortgages
promising
##iana
valued
tightening
speeds
conferences
converted
##hibit
tobacco
clo
dall
rural
ven
vit
##oter
##ael
##ptions
##hood
##rew
death
##osed
decremental
usa
meter
balancing
dependent
columb
preserve
lifted
drug
variability
attracting
passeng
##aham
carrying
campaigns
caution
reversal
nutrition
surgical
dallas
game
nurs
##sa
##mb
##idential
leaving
upward
commissions
annivers
kept
lapping
internally
partnering
affecting
maximizing
feature
ranging
controlled
separate
fortunate
concept
redemption
hp
##icks
abate
unlike
notice
106
realign
peer
offered
contractors
automated
curtail
sponsors
##rawn
pu
sight
##lical
##onts
proof
deb
strugg
copper
salaries
outsour
veloc
103
driveway
consisting
drag
protiviti
storms
preparing
delinquent
scientific
border
dise
mus
sound
##lough
##mal
##golf
thr
##anol
##utation
contemp
cool
##lific
adds
amb
servic
##ounced
monet
furlough
fronts
topgolf
occas
affo
foundational
slowly
dropped
covering
adopted
hedges
ri
##anes
reloc
##ushing
##ppers
trillion
moves
club
interrup
cra
cru
guidelines
infection
inside
275
regulations
fueling
aligns
personalized
greenb
scenarios
vendor
michael
appears
affiliates
granted
kent
oe
##urally
##mented
##rist
securing
investig
outbreak
relating
backed
combining
weekly
dealing
mills
concludes
resumed
ethanol
silver
atlanta
accrued
greenbrier
fert
mile
wages
##enix
##itting
##stock
reverse
ads
resh
##unction
additive
interim
equities
progressed
assured
manufactured
meetings
themselves
filt
producers
firmly
prioritizing
suspended
friendly
cand
ded
et
hvac
rated
##mon
##gm
##ison
que
quart
exper
shorter
expects
continuity
spin
heat
equates
midst
empower
helpful
severance
deeply
exploration
functional
vaccinations
anniversary
velocity
dial
hu
iq
wid
##ken
proved
##ady
boe
##aves
proportion
greatly
considerably
elig
capturing
##phone
choose
##atched
gallons
brokerage
ariz
eye
luxury
cv
dun
pad
rf
sized
##com
##gi
reh
##oma
unfol
spoke
recovers
##ibles
distributors
bankrup
formal
achievements
persistency
wastewater
warrant
##edients
furniture
therapy
ingredients
arizona
eric
gar
swe
##lish
##junction
##itable
204
acres
chol
unum
spite
solve
108
downstream
scores
franc
flavors
pho
aren
integrity
accommodate
aum
map
sand
##iter
##rete
##stitut
##lot
churn
##ansas
words
indirect
undrawn
##ode
score
distributions
forecasts
diversify
political
describe
outpace
suburban
biopharma
cholula
phoenix
dn
lp
lt
pure
wit
##iors
congr
append
##ived
decis
intention
meant
supportive
inflect
##ishing
headqu
posting
billings
simplific
breaking
finding
cutting
chemicals
repositioning
skills
nuclear
passenger
filtration
bankruptc
witness
cities
##rain
##ford
##will
##ga
##xy
##alle
##room
remo
reputation
commenced
allete
##erto
reflection
looks
restoration
euro
cyclical
publicly
##pected
exposures
##regon
requests
translate
covenants
magnitude
pause
surch
##gu
albe
109
mining
explore
array
outpacing
separation
polym
duty
nursing
puerto
kentucky
appendix
albeit
aid
cagr
ken
oh
conjunction
shelf
opex
##encing
155
rocket
employer
phone
reduces
director
variants
weekend
expenditure
participating
averages
converting
geor
branches
checkout
piece
unmatched
homeowners
diamond
quartile
congrat
fm
ngl
uri
vig
##lah
##gent
##otech
trying
appeal
199
111
billing
court
370
compounded
instrument
motorcyc
gathering
oklah
discontinued
candid
francisco
oklahoma
bay
bought
cab
vo
##gs
imper
pron
love
goodwill
310
concrete
views
cleaner
references
playing
outperforming
irrig
asked
involve
carried
reimburse
decarbonization
disease
1st
cer
dc
hr
jv
lly
mol
rico
warm
incident
alum
coke
print
consensus
capitalization
capitalizing
104
##lets
expands
emission
maybe
couldn
handling
regards
sourced
unfortun
mechanism
accruals
covenant
kids
overcome
flip
wisc
##ecur
##ription
white
resumption
appoint
greg
teamm
decreasing
112
sustaining
##ocking
pressured
buyer
reliance
easily
securitizations
eliminate
recycled
##ommer
involved
simplify
reaffirming
agricultural
fabric
mountain
hundreds
thrilled
simplification
wish
##pu
inher
exiting
beach
coach
loe
indoor
discoun
##eria
disney
begins
##onsin
arri
transitioning
marking
played
playbook
promote
deterior
motion
bolt
destination
establishing
cautiously
vessel
older
exactly
tireless
grocery
irrigation
wisconsin
census
gal
sor
##ners
##nie
##matic
##fa
##zen
##isle
strides
impactful
downtime
124
profitably
window
illino
mandate
strive
thoughtful
bolst
pushed
documents
illinois
aided
cet
vin
##dom
##lining
##alt
web
##eca
##iding
salons
unex
soph
depressed
except
113
attach
topline
165
cars
smoo
enhances
contractor
tested
290
apart
advisor
audio
limitations
carriers
eligible
ohio
aig
bed
cc
dental
fan
jet
native
##vent
##la
##edge
exemp
exhibit
sty
##liances
meals
genworth
101
none
114
advice
propel
corner
announcing
lifetime
grat
attributes
happening
bullish
ranked
b2b
unexpected
tav
ww
##au
##iated
asb
##utely
resmed
##eme
earth
intense
genie
##ultaneous
mode
factories
topic
simultaneous
lima
dealers
centered
franchises
850
differentiator
containment
colorado
hilltop
routine
society
concessions
smooth
www
oregon
##iam
##eck
##semb
overs
basically
currencies
crm
benefic
##echers
interesting
116
118
accep
presents
hands
specifics
stewards
domin
skechers
hearing
snacks
disclosure
wildfire
temperature
contempl
pronounced
teammates
tavr
beneficial
cin
easing
nic
pound
##even
##pet
##body
##rock
##isms
##vering
##onged
willing
engin
plays
itt
sysco
graham
bills
funnel
omni
mandates
identifying
tanker
pseg
figure
adequate
ipo
jud
##ony
##iction
exting
seems
##ials
salary
uneven
##ucks
advances
145
doubt
##onsolid
lifo
collective
regulators
mitigating
selective
funeral
hopefully
subscrib
physicians
mechanisms
calculated
intelligent
rules
citiz
telecom
sophistic
extingu
vest
##era
##atient
told
rewards
##idents
exped
whose
##emost
unwa
focuses
valley
guiding
ecommer
synd
becomes
county
ark
movements
reserv
steep
375
refinery
eastern
doesn
##apeut
semi
flooring
listed
labs
railc
seamlessly
territories
analysts
diagnostic
unwavering
ecommerce
3rd
ca
russ
sce
resin
continually
##ards
door
topics
consistency
connecting
navy
fuels
producer
rigor
lockdown
apac
picked
floating
therapeut
##ckets
pumps
containerboard
damage
tariffs
cet1
kore
mur
##tt
##han
##yan
##gas
bever
shaping
charter
refine
107
downward
nonperforming
nothing
joe
joy
integral
entre
valuations
eliminating
muted
takeaways
syndic
ech
masks
pain
rm
isol
##osop
try
secondary
intended
workflow
disin
repurchasing
maturing
alongside
disruptive
hourly
aggregates
budgets
737
disposal
complexity
audience
measurement
unusually
scaling
optical
functionality
watching
philosop
##offs
minority
##with
##enow
haven
123
frid
theme
specialized
forefront
issuing
accompan
streamline
instruments
fortunately
switching
osb
cancellations
servicenow
extinguishment
beverages
cs
signing
task
##nea
##core
##hs
inject
##iling
weigh
assemb
stood
spr
retired
##key
##ource
fragr
grap
governmental
proposal
promotion
authority
apnea
##ylene
prudently
eliminated
coastal
recruit
sharply
scalable
inspired
problems
demographic
music
unfortunately
friday
gp
gate
los
##cill
##bound
thres
##urer
rely
##ception
ancill
adhes
##oting
recip
upstream
##ointed
clim
workflows
save
amen
ambit
projection
##prene
royal
consisted
presc
doug
northeast
parcel
##located
limiting
transitioned
yourself
trials
announcements
prosper
calculation
influence
menu
reinforces
anchored
academic
huge
inflection
entreprene
philosophy
threshold
ancillary
ambitious
ceme
dive
fona
iff
lloy
mag
tor
thrive
##inum
wear
forth
whe
neigh
trucks
worst
restore
137
assign
normalization
handle
reinstate
elevate
slowing
##phy
bigger
printing
##lands
hopeful
swift
strip
aimed
simultaneously
murphy
dates
garden
lou
nii
##lac
##bird
theaters
##uel
applying
remed
italy
##akers
teek
deliber
excite
122
committe
preserving
robot
affirm
reviews
format
protective
seneca
380
ships
ski
lighting
snow
favorability
feedstock
finishing
warehous
households
qualified
prevent
ebitdar
cpuc
fluctuations
children
bakken
decisive
fine
ice
iron
mcc
wra
##overy
##pts
##fast
reform
##isource
prove
lasting
goog
sof
128
planet
severely
pipe
define
indicate
enterprises
evaluation
sensor
inputs
translated
towers
cmc
receipt
shelter
deaths
fertil
experts
loews
sorry
engines
teekay
google
hur
wai
##dale
##agine
##ky
##fc
##itative
excus
foremost
##iders
spike
intact
serious
signal
valve
discovery
126
119
thereby
midwest
specified
northwest
differentiation
325
introductions
exploring
recapt
conventional
manager
resonating
datab
scrap
upgrading
recommend
##onsolidated
bcf
nord
p3
tap
wti
##sion
##bee
##20
onto
##ections
##izz
moody
comparability
unr
boy
boat
veget
modifications
synov
completions
combat
arise
sellers
gets
forms
340
happened
cuts
conducted
amazon
honored
lenders
kingdom
cooking
headquarters
cemetery
louis
blo
certaint
fly
nomin
ral
sort
##lere
thesis
##ita
##alf
##iles
##etn
aspect
stop
aligning
adr
composition
secondly
notwith
##veland
interv
redes
##argo
##ician
flags
emcor
peoplere
minnes
indicates
charging
finalized
skin
prospective
impairments
optionality
audit
widely
summarized
mandated
behaviors
convenient
expressed
adversely
namely
wait
vietn
therapies
interactions
composite
molec
cinem
korea
notwithstanding
peopleready
minnesota
##vie
##inations
reo
quarant
##igan
##ule
marsh
unkn
amend
libor
portions
depart
modified
133
extensions
anticipation
laur
##lications
addresses
constantly
captured
harley
redeem
nimble
tankers
figures
takeaway
cdc
renovation
lithium
queue
committee
excuse
synovus
hab
tighter
##power
##fe
ford
##cell
##ains
newest
plent
performances
noneth
doors
extract
aflac
disloc
insulation
indicative
behalf
eventually
preparation
collaborative
geographically
pursuit
pivotal
massive
underscores
wallet
document
legisl
contingent
sophisticated
excitement
certainty
nonetheless
aven
auction
fight
mbs
trough
##dd
##bi
##bc
##itage
sto
prol
acute
nonres
##itely
roof
inspect
carl
billable
referring
rebuild
##orne
revolution
collater
averaging
amounted
davidson
michigan
2050
vietnam
cul
ig
kar
ling
##cr
##erb
##inity
##usion
##ista
comparative
129
185
counts
differential
unconsolidated
useful
disrupted
occupied
cleveland
425
durability
apartment
sensors
blocks
separately
predictable
incorporated
transitory
refunds
schuh
river
craig
accepted
arkansas
4th
bb
mro
sam
wel
20s
alg
plastic
transactional
association
formula
lateral
transformative
pharmacy
johns
concluded
procedure
speaks
australian
incorporates
absolutely
diligent
agriculture
expiration
inherent
fertilizer
unknown
aur
cree
gone
mask
mfa
sate
tab
##grow
##ese
inception
##icut
style
##estration
seattle
##astics
appliances
abl
abund
intensive
text
interm
heating
young
redep
117
autonom
##iliar
formed
connecticut
addressed
indication
indications
engagements
mindset
mindful
subscriptions
adapted
walker
strike
incorporate
biolog
concepts
composites
certified
cruise
boeing
climb
lloyd
database
satell
mr
pushing
vm
wine
##eries
congest
proving
expiring
bell
##ama
##uma
highway
marketable
remove
unable
lowe
relate
##avia
background
programmatic
desir
proper
cliff
metals
normally
##plan
competitor
themes
defa
criteria
##edict
leverages
hygi
transformed
unpredict
preferences
comprise
learnings
relevance
observ
underscore
problem
realignment
vigil
softer
ast
cna
hay
sap
##iet
##len
##mat
##gers
##ette
withd
chic
appet
plumb
plastics
##ancies
veter
guess
127
interested
industrywide
distric
bankers
accessories
ideas
sensit
requested
drawn
tony
carrier
conviction
transparent
illustrate
illustrates
friends
derivative
underpinned
applebee
carlisle
plumbing
cb
gbs
pv
rand
##ties
##kin
##allocated
##road
##asc
##iled
##aker
healthier
131
frac
brook
processed
anything
prote
requirement
##life
concern
instructions
terminal
prepayments
exercise
wildfires
accurate
ocean
subscribers
cliffs
mold
paint
tuck
zeal
##lord
##wire
mart
##osm
repo
itw
unallocated
amended
wherever
counsel
##brand
reinst
tests
barber
conversions
familiar
420
persistent
featuring
adapting
tomorrow
resolve
msa
deleverage
suspension
submitted
concentrated
ceram
nonresidential
aa
hall
mal
np
nit
rins
sizes
##ox
##ius
##vs
##bas
##energy
##ules
whom
mary
seem
##oted
lod
loved
teen
soy
2014
offsets
twice
##under
persever
disapp
anywhere
optimal
matures
knew
stepped
landlord
simpas
holidays
fundamentally
statistics
presenting
methodology
permian
bolster
artific
ranking
mutual
reactiv
refrigeration
acreage
nichols
russia
creek
dick
dtc
gary
lam
ray
tds
##ni
##ca
##cy
thor
todd
##rement
reorgan
##theless
forest
co2
telev
liber
pleas
peter
phases
exceeds
vacancy
analyz
partnered
streamlining
nevertheless
787
accomplishment
observed
definitely
embrace
pieces
diego
spirit
iqos
unrest
plenty
chicago
zealand
3d
eased
jay
lc
ore
ta
vul
##dr
##agin
##ester
##itives
##ioned
##through
##imination
strict
##chemic
resident
overse
chance
remov
vegas
brent
advoc
americans
dilutive
shortfall
footage
allocating
owner
moderated
wright
replacing
elimination
pools
stayed
millenn
college
centralized
gallon
dana
refrigerated
prolonged
liberty
az
bold
mast
mall
qsr
##tron
##gated
##onal
inaud
tours
##ria
belt
shr
offense
repat
outgrow
span
subside
normalizing
packages
identity
impressed
choices
advertis
paperboard
aws
incorporating
##frame
negotiated
missour
##worthy
consequently
energized
stemming
outsourcing
dialog
voice
gratitude
vigilant
fans
hop
ii
##icide
##ett
forced
asian
##oline
ange
implications
coh
oral
generates
121
believes
##ibilities
consumable
lineup
138
167
election
broaden
235
stocks
265
vacation
accessible
critic
estimating
deepen
borrower
replaced
mitigated
proposals
refinanced
listen
pulled
repayments
checks
breakthrough
permitting
influenced
##after
gears
ventilation
satisfy
acceptance
champion
columbia
joybird
appetite
ceramic
inaudible
jew
nick
##cout
##hl
##hics
##ato
touring
##etts
station
onc
##usetts
leaves
upfront
appar
clust
mont
discl
downs
195
##achusetts
##uced
recording
thereafter
combine
phen
manufacture
optimized
delighted
entities
sixth
##roportion
authent
hedged
shipped
concerning
massachusetts
unlocking
honor
golden
screen
disproportion
witnessed
reimbursement
neighbor
johnson
vmware
3q
rpc
##rator
chose
##ung
##ips
##italization
usis
throughs
discover
roic
136
132
crews
contributors
##aware
##places
turnover
reviewed
##angibles
instance
issuer
viewed
holds
releases
proceeding
390
emerged
feeling
modernizing
locked
popular
licensed
regularly
copy
derived
surprising
deduct
dunlop
bankruptcy
redesign
redeploy
congestion
unpredictable
cargo
ds
hem
il
kil
mel
osh
pair
sb
send
tm
tact
##val
##lay
##here
inj
##urial
weight
##teries
alph
covers
##ada
wash
ati
opens
christ
union
spain
intangibles
aging
amerisource
146
142
realizations
sustainably
internet
gran
mae
median
naturally
regulation
airlines
dealership
promise
fleets
modernize
swaps
containers
medicine
audi
conservation
imaging
wesco
bodes
replenish
hpe
aluminum
tirelessly
wrapping
artificial
missouri
phenomen
cub
dimin
fn
fpl
gene
hyp
mp
sba
trop
vans
##me
##inet
##ativity
##asm
##ults
##rif
alt
alan
anix
hamp
sally
basket
moreover
allstate
##bergen
ammon
companion
substitut
134
148
risen
allocations
advantaged
everest
collaborating
##ordinated
universities
guaranteed
erp
atlantic
tourism
roto
discounts
stewardship
citizens
remediation
deliberate
amerisourcebergen
anixter
ammonia
aar
ferc
kr
kim
rick
wond
##ham
##home
##kill
##inc
##ora
##mentioned
##erson
shale
##osh
code
resist
##orementioned
chap
fintech
experiential
infilt
likewise
rooter
fruit
aforementioned
176
anyone
elected
lifting
delaware
careful
foundry
film
players
attribute
pockets
flowserve
streaming
prepaid
contained
physician
policyholders
illness
pulp
motiv
methane
shops
breakdown
cybers
permits
copd
remodeling
postpaid
obtain
onboarding
frozen
##ecurity
bolstered
recipe
lingering
canc
cush
gb
lens
nas
npl
wy
wab
##rants
inqu
##ione
aside
stick
##leum
grows
perpet
command
progression
creativity
corp
innovating
percentages
peoples
##bside
consolidate
noteworthy
limits
considerations
trades
tradition
difficulties
replay
evolved
ramped
consultants
curbside
amplif
precaut
guarantees
upgraded
expirations
ibnr
petrochemic
surcharge
warmer
hygiene
criticized
authentic
neighborhood
aon
dim
harm
lond
mts
mild
pal
pione
tamp
vl
##aug
##ridge
##fish
inaug
incidents
##iration
##ppy
##imes
neur
enorm
##umm
salon
movie
newer
##outs
intens
saud
safer
ports
betting
attrition
162
grand
285
yielded
2009
tenure
analyze
passing
memor
enhancement
tempered
happens
drilled
streamlined
fortune
##shore
reinvesting
leaner
destocking
concentration
canceled
reinforcing
##nesville
varying
athletes
receipts
dgd
petroleum
investigation
candidates
fragrance
entrepreneurial
assignments
habits
welcoming
haynesville
lodging
jewel
oncology
infiltrator
cybersecurity
london
ber
bios
density
hires
nash
oun
ps
rack
##bago
##inary
##itiveness
toll
##enture
##ormick
intel
meters
2013
##rick
154
developers
141
144
attain
169
everyday
winne
competitiveness
differently
stepping
holders
advancements
tightly
preference
immune
explain
downtown
resolved
catastrophes
layer
guaranty
bidding
homebu
exercises
message
anchor
architecture
abatements
furloughs
unfold
meantime
oversight
gateway
prescription
mccormick
ralph
roofing
collateral
autonomous
nashville
winnebago
fa
fits
oup
pizz
yards
##uff
##gate
inbound
##ret
##strom
##tered
whit
contrast
shock
adult
acuity
##elph
brid
brink
discon
beliefs
147
accelerates
corru
normalcy
potato
governor
drink
applicable
idle
visitors
settled
570
swap
prepandemic
collaborate
maximum
stabilizing
outpatient
inspiring
fluctuate
enacted
ambition
polymer
rigorous
sensitivity
inquir
perpetual
saudi
##elphia
2q
cro
gh
hired
hero
md
nci
waters
##iable
##ses
##cially
##min
##gia
reent
##etics
leap
operates
##arges
interests
strengthens
payables
successes
grants
requiring
runs
variables
reserved
summit
airline
ideal
indicating
packaged
privile
430
tailored
touched
picking
hitting
charlot
cells
correspondent
definitive
frankly
cancellation
lender
powder
congratulate
rmbs
nordstrom
satellite
pleasure
mastec
shrink
traditionally
enormous
pizza
disconnect
dd
gm
jon
mist
vish
##sp
##ras
##uter
##mart
##erica
theat
##itzer
forces
##vered
asc
##use
##estnet
seed
seating
adher
##osing
coff
##tside
trig
pride
prene
##soft
retiring
monetary
envestnet
equality
manageable
scar
scot
ordering
travelers
mainland
cultural
fedex
personalization
##related
460
responses
assessing
batteries
irp
repairs
assortments
biden
affiliate
ebitdac
bonuses
surprise
microsoft
nucor
confirmed
tariff
informed
retrofit
morator
##guard
georgia
flagship
television
audiences
cancer
peoplescout
vlcc
jewelry
corrugated
charlotte
vishay
preneed
00
bab
jones
jaco
james
liv
lump
paus
rider
tree
##bled
inland
##illy
##ulsion
##essions
expire
##adelphia
suites
salt
outset
underground
156
159
ems
seasonings
diversifying
335
skus
settlements
prioritized
translating
determination
noncore
ppnr
philadelphia
eager
embracing
characteristics
postpon
gigaw
enthusiasm
vitas
sponsorship
occasion
ccm
adhesives
nitro
apparent
alpha
cart
dso
jll
mir
pest
sant
smar
ti
vect
##ym
##omb
##imera
coors
##lift
chimera
##agement
basic
usually
portal
##ounce
crane
bund
dock
infections
151
subse
freeze
161
##othermal
contraction
century
gasoline
2008
domain
soup
950
530
comprising
roadm
glad
treasurer
reinforced
hosting
resonate
rationalization
venues
legislative
##planned
soybe
cubic
inaugural
smartside
civ
kitch
vib
wat
##fl
##urable
##check
##acle
upb
decent
customary
unpar
spik
workload
amg
198
environmentally
153
restored
139
justice
smoke
digitization
grain
makeup
associate
clearance
laboratory
moderation
designs
scheduling
adopt
410
predicted
causing
snack
comfortably
precise
complemented
redeemed
scaled
underscoring
simplifying
narrowing
enjoyed
obtained
railcar
therapeutics
molding
cushion
tampa
nitrogen
dine
dual
drew
fp
ih
riders
tba
##tch
##sg
##gment
##bal
##urt
##alk
##ilent
ours
sevent
##acc
plas
outline
intake
##ailing
2010
crack
193
subd
paycheck
215
fraud
letter
laund
174
arising
##ublic
seasoned
mineral
exists
personally
entity
handful
raj
##management
extends
wholly
subscriber
clinics
independ
stretch
semiconductors
heritage
brokers
fitness
instrumental
##umbered
farmer
messages
jackson
showcase
louisiana
departments
angeles
moratorium
roadmap
unparalle
dow
fis
games
puc
##mont
##well
##ball
##eration
##orp
##itter
##rees
exports
sea
coo
##apol
orland
tru
##iva
fired
repric
unplanned
allen
induced
downgr
accumul
propulsion
employed
sheets
163
preserv
172
contracting
folks
##ilian
peoplemanagement
approaches
residual
##anger
obst
freed
##ronic
traded
440
steadfast
augment
southwest
minimizing
responsive
falling
banner
wallboard
messaging
reshaping
imperative
galvan
disinfect
##ascular
advertisers
wabash
petrochemical
livest
plasma
orlando
carter
dda
eu
gts
jabil
mt
mad
nights
rng
rbc
sac
van
##pay
##vable
##bl
theater
##atures
##alach
##ican
proxy
onshore
incoming
seal
##osis
##list
chem
appalach
republic
##sets
agilent
solely
152
modification
ameren
whereas
##away
##ycle
hardening
idex
laterals
cats
ventas
blast
studio
impressions
walmart
cards
maximus
carryover
lagging
underserved
geop
geothermal
benchmar
missed
underpinning
replenishment
correct
linear
architectural
distinctive
motorcycle
recapture
martin
laundry
unparalleled
dx
iot
mck
motive
zo
##ship
##rs
##ara
##eco
##etek
##thorne
stations
increment
##osen
imposed
firstenergy
unle
worse
signet
ametek
flowing
cruc
196
periodic
255
crew
##icken
takeout
condens
broadridge
grades
245
parents
myers
runoff
disciplines
oilfield
keeps
domestically
blend
selectively
promoting
harsco
medicaid
subsequently
frequent
urg
hawthorne
exclusively
biotech
reopenings
radar
boosted
athletic
epa
frost
interruptions
rehabil
removed
recruitment
nominal
inspection
aaron
chapter
crucial
jun
jason
lg
miam
nap
pedi
rh
tan
tent
vp
##cil
wet
congress
##rix
bases
appointed
customized
timeline
tea
signature
interaction
hev
bruce
underperforming
attemp
164
materialize
norcal
detection
council
315
patrick
consolidating
entit
visible
protected
referred
propositions
exposed
accountability
470
ramps
53rd
penn
circular
titan
frequently
trucking
##aska
tender
quanta
simplified
suggests
temperatures
migrate
removing
assembly
dislocation
paused
postponed
rehabilitation
miami
pediat
drought
kro
pant
rac
tub
##rust
##uke
##belt
##orith
reass
converse
forum
asking
stad
206
debit
chicken
recl
bop
crt
timeframe
looked
nearing
rogers
212
lapped
sinc
hardest
elevating
cultiv
communicate
finalizing
enterprisewide
unfavor
ultra
consultant
640
smartphone
treaty
draws
compressed
sunbelt
validate
migrating
elsewhere
columbus
struggling
styles
quarantine
amendment
algorith
desirable
wonder
inquiries
livestock
chemist
bps
bounce
gri
pg
pcc
qm
tro
vf
##arry
quiet
dead
marin
atms
hair
caps
##istical
decor
decou
##aken
click
##bert
guy
downside
version
calling
callaway
assurance
headed
directed
economically
##pling
argent
moderating
player
adopting
prospect
eventual
525
tightened
locker
490
installations
irs
pulling
extraordinarily
soma
mcd
silic
demographics
submarkets
enthusiastic
occasions
motorcycles
graph
avenue
ihop
kroger
bni
cig
dress
fail
horm
lad
lyond
mond
pbr
ske
##dig
##aiss
##cp
##uities
##gre
##got
##esa
overd
##lihood
chico
chronic
salesforce
outlets
indeed
##opy
nonoper
executives
equated
reportable
158
substr
commercialization
149
143
factoring
brow
177
182
headlines
broadcast
patent
stories
flatt
steam
##ellbas
poland
hospice
studies
responsibly
predictive
explained
securitized
involves
pivoted
tripled
guarantee
sentin
waiting
renaiss
fluids
armour
interactive
corrid
default
##onald
seventh
urgency
lyondellbas
lyondellbasell
a3
bow
jord
jose
pel
pages
rs
tick
##ipp
##rated
##ener
##ales
##star
quote
const
asph
##atever
whatever
alab
isn
overcoming
acl
##acles
chass
tranch
apps
unp
unenc
word
wors
indiana
##berg
brad
bryan
equi
imports
perspect
laws
186
everybody
measurable
integrations
universe
possibly
evaluated
westrock
630
listening
somewhere
reinvested
brazilian
methods
permanently
polyol
reiterating
degrees
restarted
holistic
visitation
town
celebrate
depletions
kicked
appointment
appointments
isolation
wheel
reinstatement
##lenec
cbd
baby
unfavorably
argentina
asphalt
alabama
chassis
perspectives
4q
dup
damp
fract
gi
ign
jenn
lies
mail
##tle
##tree
##hand
##yder
##athe
weld
reev
##olitical
##mpt
wasn
unb
boil
enduring
indones
heico
feels
cry
197
annuities
planters
technicians
157
scent
assur
frag
attack
flaw
avista
179
184
smith
esc
##reme
vacant
tenn
technological
wrest
engineers
safeguard
##box
possibility
augmented
advancement
rebounding
miller
geographical
875
thermal
banners
subsidies
nationally
supreme
unused
artic
turkey
denver
rule
arrangement
surgery
venue
deterioration
vince
attachment
prosperity
robotics
cinema
withdraw
cohort
theatrical
galvanizing
geopolitical
pediatric
stadium
sincere
hormel
jordan
unencumbered
reevalu
bis
ball
cms
ell
fold
fcc
ferry
hom
lighter
tack
taco
##pm
##ki
##kosh
##urate
cogn
##aped
recre
capita
preced
casino
placing
pledge
outflow
unfor
spok
demanding
##opark
buff
phased
244
surety
visual
365
markdowns
referral
poor
devon
##itorial
brewer
authorities
studios
touching
shoppers
contains
comprises
institution
actionable
featured
glenn
mandatory
inspire
denim
characterized
celebrated
turbul
depletion
treating
interruption
2040
echopark
amenities
disproportionately
oshkosh
granular
substitute
pioneer
battle
dar
ef
fest
jerry
mh
nare
ncr
pes
pork
tun
vill
vict
##night
##ls
##uous
deemed
cot
overtime
che
unif
signals
financed
2012
194
##strong
programming
expensive
payoffs
colon
166
smok
directional
varied
seasons
renegot
267
formation
surfact
encoun
airb
bars
##otten
logistical
participated
reasonably
520
swing
560
choosing
590
ceiling
budgeted
mexican
appreci
summarizes
lagged
imagine
ukrain
negotiating
terminated
remarkably
narrowed
farmers
adjacencies
##glas
panels
undertake
koppers
clothing
cooling
warranty
ltv
polymers
willingness
vesting
abundance
biologics
observations
vulner
accumulated
freedom
breweries
nareit
ben
bound
cct
cast
hen
korn
lived
ment
rpos
sue
tu
wolf
##node
##tr
##sys
##rise
##cl
##upp
##aring
##itan
##ecycle
##reach
##etal
##ulating
##ollect
alto
##abis
growers
##logy
##lix
##aste
orch
foam
marketplaces
decel
additives
relax
meal
indices
soil
solving
portland
generic
##fold
192
noise
anton
revitalization
config
171
178
headline
234
specialties
295
airport
idea
evercore
emergence
finalize
divesting
##whel
greenfield
475
trailer
responsibilities
instituted
disposable
situations
transferred
enjoying
matching
hosted
chips
escalation
vinyl
fannie
millennials
repatri
indonesia
bisnode
ak
ced
dod
eating
era
lie
nx
ox
pai
uc
xyle
##aunch
##vi
##vada
##cious
##light
##wick
##2c
##inent
##urse
andy
##vey
##term
stell
##owers
##estos
cous
cooper
overwhel
foster
##ender
plate
outlet
manual
allux
sauc
intermod
##aterial
##ups
dog
equation
likelihood
branding
desired
216
213
colors
facts
douglas
caring
broadening
trauma
lifecycle
representative
premises
lessons
surv
##angu
hardship
networking
releasing
referrals
deepening
sitting
reliably
merc
differentiating
540
merchants
circor
resuming
deris
involving
sooner
biom
influenc
blackstone
sometimes
optavia
terminations
tends
surpassing
hurricanes
forbes
cannabis
armstrong
validation
definition
##eastern
panel
undertaken
screening
monetize
rfp
cabinet
asbestos
royalty
warehousing
seriously
blood
district
perseverance
lamin
azure
outgrowth
subsea
obstacles
reclass
cigar
sentinel
flawless
xylem
alluxa
intermodal
alex
bp
hun
ic
ion
mit
msc
oak
pf
pcs
rin
ty
tere
tik
##hma
##max
##gered
##xp
##ena
##icides
##rell
quad
incurring
##ola
##irms
withstand
shy
##sell
##acon
##acorp
##otyp
chili
chosen
outreach
ende
heater
brun
crush
bump
305
robert
outlooks
french
locally
401
arpu
prototyp
##rais
squarely
memory
landfill
concert
polar
logs
amortized
macy
aerie
identification
stakeholder
510
immaterial
persisted
sensing
motors
##ylkill
charitable
awa
vertically
publish
cellular
convin
sponsor
holly
escalating
camden
##haul
turbine
refreshed
threats
passionate
schuylkill
spirits
etf
echo
warehouses
recommendations
igt
asthma
reinstated
maryland
analyzing
surprisingly
tactical
fnb
dxc
brown
barge
cyl
dak
fem
gart
krist
lake
sought
um
##pid
##part
##prod
##va
##rate
##ritional
##can
##lor
##hen
##yr
##inery
##urers
##ington
##alog
##rote
##asive
##ilder
reunder
conagr
stif
##leman
207
##riers
expired
##mpra
sempra
coop
##apore
sud
leag
enpro
chile
##quest
trained
invo
pratt
unve
spices
intim
actu
relaunch
billions
indian
worker
transc
financings
##ordination
twist
##ricted
paydown
empire
roaming
peace
flash
distance
168
insect
##licated
singapore
##plus
uncollect
delux
formats
clearer
oils
coupons
films
barriers
rebuilding
hyatt
##ocr
tightness
mega
popsh
favorite
biof
loading
compounding
mcfe
polyeth
diligence
qualitative
quantitative
sponsored
miscell
verification
satisfied
outbreaks
reshape
widening
##compan
surcharges
fmc
injection
protein
mirr
vibrant
##apolis
benchmarks
monday
equipped
henry
nxedge
gartner
reunderwr
conagra
popshelf
polyethylene
miscellaneous
ax
aes
cim
gaps
gpc
hut
iri
litter
siding
tables
wants
##ob
##yers
##invest
##orth
##ingu
##ected
beef
allev
seph
string
opin
orth
trace
recep
##artis
offline
acting
heights
totals
2011
valves
excel
##unded
developer
midland
achievable
sequestration
224
distingu
173
317
math
paris
competing
variances
ensures
tenness
idacorp
occupancies
billed
issuers
promoter
elabor
##phones
websites
hyper
reading
480
trim
settle
peaked
725
gradu
rollins
negotiation
conducting
##source
pmi
campuses
crops
embraced
certification
tvs
eyes
telecomm
aspir
rewarding
ibm
jumped
registered
bankruptcies
imperatives
cornerstone
weighed
unrestricted
removal
kilow
civil
chemistry
assurant
tennant
vulnerable
cousins
deluxe
sephora
tennessee
bip
cf
cci
lights
lane
oi
pier
##oz
##pal
##rations
##lake
##mas
##gp
##stack
stain
stag
2000
##esson
alber
2028
resins
william
##ifies
##elending
prest
uninter
spare
posed
##urrence
interface
portable
redund
monte
crisco
volt
opposed
submar
roi
219
252
combust
diss
disput
locom
metlife
smarter
arab
##airs
##rupted
footing
surplus
##ontroll
profiles
placements
##quee
issuances
primelending
logos
logistic
sku
journal
625
populations
assessments
bath
clinicians
##health
educational
fulfilling
pete
loaded
repeated
destinations
tougher
##burg
denomin
hubs
accurately
contingency
niche
vitam
##kyo
##eseen
thorough
dealerships
krg
preservation
mckesson
racial
unforeseen
sentinelone
terex
dakota
reunderwriting
kilowatt
ba
bpu
eat
ebt
evern
foss
karen
liter
oib
oxy
wo
wake
##tok
##ien
##iqu
##sense
##lers
instant
##icom
reen
##uts
##ulative
208
comprom
##ighth
##active
##lotc
##acock
recur
apprais
loop
itiviti
mann
interior
intercompan
generations
segmentation
backlotc
keen
futures
payback
imported
letters
peacock
speculative
##weight
188
solidly
236
262
##raul
writing
rebal
elk
lottery
promoted
settings
principle
575
floors
##ordinate
omnicom
sanit
sometime
storyt
enrollments
army
validated
route
missile
remodels
kohl
treated
sweep
congratulations
capped
dialogue
wyoming
precaution
whitest
disinfecting
conversely
efx
ukraine
antonio
stellar
elaborate
uninterrupted
evernorth
oibda
intercompany
backlotcars
aec
dust
jam
ld
mos
pit
rod
ryan
ward
##ega
##vt
##cap
##ker
thri
##enter
reu
exha
prox
##olitan
expires
compact
compli
coordination
##change
continental
opio
nevada
overhaul
engr
##unic
secret
commens
intra
teach
samp
interchange
equitable
recordable
rooted
214
realloc
189
183
metrop
solidify
normerica
232
owning
myop
271
standout
official
officially
systemwide
2005
weekday
evolves
bottlenec
sky
brett
franchisee
falls
treatments
rollouts
circuit
pets
hydraul
illustrated
pumping
tickets
absentee
powert
cdmo
interconnection
absorbed
catalysts
perfectly
disclaim
phenomenal
intellect
gigawatts
repricing
wonderful
skew
cotton
altogether
league
fossil
exhaust
opioid
bottlenecks
cosm
dens
dream
denn
eighth
filled
hect
hsa
iii
mpc
oli
pine
son
wip
zb
##ports
##town
##si
##uries
##asb
rear
reits
##ompass
exac
quoting
incidence
adams
resc
leak
orbit
upsc
##luded
hasn
guard
download
recourse
keith
##bted
twn
##inders
subordinated
restoring
##racted
rov
modules
adventure
combines
227
226
223
181
allowances
242
occurs
##working
276
282
284
encompass
instances
prouder
airsense
passive
quicker
##forward
levered
345
##ilton
blending
unfunded
readiness
autoz
collins
analytical
pathway
immense
weakened
cardtron
description
fields
england
complexities
appreciated
machinery
leaning
imbal
bias
downturns
telco
veriz
vitality
datac
submit
accuracy
adequacy
powers
investigations
beds
reservation
railcars
spray
parcels
reocc
stopped
paired
tropical
homebuyers
privilege
coffee
jacob
decentral
fpso
overwhelming
tiktok
twisted
telecommunic
arabia
storytelling
engraving
powertrain
exacerb
cardtronics
bir
bsg
bxp
dte
dna
fid
gotten
hhs
ire
ku
kong
kay
luc
pin
ron
ring
wrote
##eel
##lam
##my
##met
##wich
##onation
##ares
##arica
inner
##ann
ons
whene
alco
adults
complements
##oses
fost
replic
commend
##oints
nether
unified
spac
slate
underst
underperform
howard
trended
progressive
anti
218
##itedown
succession
broke
evenly
carries
311
autonation
233
405
paralle
meets
tracked
defining
activation
stephan
regionally
localized
writedown
simparica
proceedings
essentials
edwards
brew
choppy
cardi
institute
660
flood
concluding
thoughtfully
fluor
machines
msp
laying
layers
observe
terminals
reversed
reimagin
reaffirmed
exercised
radio
filling
pullback
submissions
turbines
absorbing
burden
academ
metering
relocations
arena
george
exhibited
smoothly
contemplated
therapeutic
climbed
reorganization
danaher
cros
reentry
lumpy
kitchen
spikes
##blue
mcdonald
renaissance
##upply
cylinders
stifel
##iques
precautionary
absenteeism
intellectual
upscale
verizon
whenever
netherlands
aj
aort
auctions
bure
ct
gin
hbi
larry
lvt
mental
mgm
ned
oly
oah
pep
ride
tens
uro
wings
##oors
##path
##points
##hart
##gence
##bial
##100
##erals
##inth
rej
##eted
exits
inch
##ript
adesa
stride
compute
imposs
##ches
overl
overnight
##amount
chat
upwards
plaz
commencing
conscious
boom
boats
ends
acted
pointed
inters
brighter
longest
supplying
doct
halfway
303
payoff
initiating
colum
realities
email
correlated
grav
singular
seller
surger
surged
disrupt
automate
2007
292
hardwire
restructured
364
naval
admission
385
##aluation
milwa
merit
##efin
commented
walking
api
assisting
supplied
smartphones
humbled
fluke
urgent
publishing
permit
pivoting
layoffs
tooling
straightforward
universal
ethane
illustrating
horizons
mutually
reimagine
derivatives
confirming
cautionary
curtailed
coaches
accompanied
properly
pvp
disappointed
landlords
motivated
##ukee
unbilled
escrow
wrestleman
laminate
commensurate
dennis
olymp
oahu
impossible
surgeries
milwaukee
wrestlemania
ael
bd
baking
kp
kosm
lig
pied
sits
tn
ted
telling
ves
##pd
##rich
##cale
##fici
##zz
##orox
##ilized
asv
alluded
adam
suit
haul
lex
##elter
apples
manpower
clorox
intentional
effic
sole
youth
bricks
benefici
depot
15th
restocking
eco
midyear
novel
257
realty
attritional
factored
liquids
smb
industrials
capacities
238
248
pressing
stockholder
demonstration
surges
approached
elevation
farms
restructurings
##ynne
concurr
cattle
poult
jobstack
summerlin
immers
necessarily
heavier
subsides
760
grounded
concerned
checking
dermat
constructed
concentra
stressed
repositioned
ruling
horizontal
erc
##easure
cmbs
relentlessly
recommended
depleted
##nett
outsourced
sweet
candidate
exemplif
bbb
adherence
vector
madison
sacrif
rhode
fragmented
village
colonial
airbus
suez
unveiled
whitestone
myopia
hectol
decentralized
ireland
innerwear
parallel
plaza
kosmos
piedmont
4g
boss
dash
fico
kle
lose
ranch
sli
sams
tag
vic
##oir
##ook
##norm
##apped
##iq
##iem
##iams
##swick
##hatt
##mond
##fection
##enah
inp
##edged
andrew
##reve
##owa
##rik
##iman
marlin
seat
2027
##abit
##adow
neenah
acv
williams
##acies
##ifer
tract
uplift
##nings
abr
abnorm
usg
##aka
approxim
ameri
10th
buck
inflow
consume
commercially
roger
217
peach
187
broadened
varies
modeled
normalizes
247
241
owens
matrix
paramount
affairs
278
knowing
attracted
harder
janitorial
barry
domino
435
decisioning
commissioning
675
subserv
loads
embark
methode
behavioral
prevention
sugar
olive
displays
jurisdiction
decarbonize
retroactive
champions
lithia
##know
struggle
furloughed
rehab
intentionally
instrumentation
deteriorated
reservoir
disinfection
robotic
interventional
malays
oversee
dimensions
biosci
scarc
workloads
unlevered
tyler
brunswick
convinced
prestig
elkhart
reuters
metropolitan
aortic
samsung
##hattan
aps
bates
darden
fib
nu
pas
ros
race
tand
tasks
waves
##hel
##hib
##zers
##zard
##esco
##alds
##omp
asus
stays
##cept
alike
shaped
marina
sean
complicated
##che
resale
suited
acknow
enerb
charters
salv
continuum
repreve
manif
manhattan
##enco
induct
brit
craf
teamwork
191
canopy
##inding
mids
midtown
roa
anticipates
closes
flc
222
broth
insper
distribute
powering
delight
##bridge
summers
activations
attractiveness
leaseback
packing
produces
##phere
##wheel
lightweight
refineries
transformations
hospitalizations
omega
620
physically
causes
rollover
requesting
charles
pursuant
boxes
toughest
##edding
licenses
enrolled
##breaking
restarting
interconnected
ventilator
ventilators
registration
dispens
empowering
unfolds
syndicate
bcfe
molecule
extracts
randy
brookdale
spanning
sendtech
soybean
appalachian
##mptom
elliman
appreciative
mitral
prototype
sudden
actuar
stringent
opinion
##artisan
bipartisan
rescue
datacom
exacerbated
efficacy
scarcity
batesville
tandem
acknowled
enerbank
insperity
cign
crow
cds
dav
dale
gift
hess
hort
iowa
kf
mick
makers
nations
nour
ole
pn
pim
rain
sessions
tio
vint
wil
wpd
##wid
##bie
##bors
thurs
##onential
##itrust
tot
##annett
reeng
rebrand
##illing
##ulu
##ollo
##riad
exponential
##adv
pert
continent
##seed
basics
marginal
booz
greens
totaltech
fuller
downhol
desk
subc
roo
##ously
justin
antitrust
##iciency
revis
revision
contributes
rata
insurers
constraint
evening
patented
setup
arbit
355
knee
careers
##gett
corporations
myriad
268
profound
oilseed
296
visiting
barb
barring
eversource
admitted
difficulty
readily
trips
swine
580
apollo
practical
collaborations
sne
##imeter
crossed
japanese
purposeful
830
controller
titles
##athon
suffering
calculations
pretax
woods
quantify
superb
uptake
preval
richard
##urgical
cpg
nexsys
surprised
##profit
concentrate
morb
commencement
unlikely
pads
weekends
expedite
expedited
isolated
signaling
flywheel
districts
subdued
pantry
decoupling
guyana
welding
spoken
dogfish
derisk
endeavor
polaris
reception
vitamins
appraisal
dermatology
inpatient
amerihome
subservicing
malaysia
manifest
cigna
thursday
downhole
bare
cri
dip
eog
gse
jul
lr
langu
missions
pun
picks
riding
renco
sides
##pe
##pace
##iest
##lane
##yd
##wan
##walk
##4s
##edient
reest
relying
##ommission
##the
##rian
##rival
shell
seize
anth
adas
##tsbur
##apor
hamm
##ante
##iox
lob
newmar
unrival
##000
meat
liby
redwood
regener
diab
modular
advise
assure
propane
colder
revise
221
##issipp
patents
owing
##airy
minerals
getty
forming
standex
critically
founder
founded
foundations
299
passes
stepan
transitional
conversation
writ
exchang
merrell
privately
greenlake
staffed
trailers
alternate
phones
670
irr
680
groundwork
procedural
##boro
machining
permitted
constructing
mcm
ethics
sunset
surveys
validates
mississipp
redevelopments
camer
timberland
societal
acceptable
belg
craft
accompanying
waivers
vegetation
intervention
veteran
proteins
injury
kimco
ounce
ounces
substrates
fraction
preceding
tupper
configur
cigarette
reengine
pittsbur
bureau
ginnie
lexington
hectoliter
inductors
nourish
tioga
unrivaled
mississippi
pittsburgh
apt
biod
cts
cup
clock
dairy
fen
gard
gannett
hud
iv
kansas
kfc
ls
lilly
mowers
nr
nym
riv
sr
tce
tie
tcf
tanger
wu
zone
##vasive
##secur
##ram
##rality
##bell
##inational
inev
##illa
stu
##lean
beating
##imity
##abank
implant
coinc
sund
##erev
##iful
##uder
logo
fires
deciem
spots
endpoint
performer
feas
slated
##ribed
believed
organized
subst
submission
module
antib
completes
revising
emot
disaster
divided
lauder
detect
electro
231
multinational
246
recognizes
affinity
myself
activewear
reinvent
ide
publication
extremities
traderev
rigid
facebook
promotes
shoots
synergistic
peaks
medicines
groundbreaking
neutrality
charts
##ught
precip
awp
noncontroll
recycl
broken
breaks
cyt
horse
turf
outdoors
inspiration
rounding
documented
certific
suggested
##apple
ingredient
postpone
scientists
contactless
overcame
curtailment
debut
etfs
##rooms
fm100
fabrication
hilltopsecur
adhesive
reinstating
disclose
amplified
vlccs
incrementally
reassess
algorithm
ticked
repatriation
locomotive
proximity
poultry
suezmax
nymex
noncontrolling
hilltopsecurities
1q
3m
cn
dv
dot
diox
eb
fry
gses
io
je
ly
lucky
nfl
tai
taste
tgp
ul
xdr
yard
##iere
##skin
##rill
##lim
##uing
##mc
##mad
thom
thunder
##esis
innings
##entions
##isa
forever
##idy
shore
cogs
##amination
##liest
chase
shareown
##istan
newness
conserve
intr
democr
transitions
refract
redef
cracks
payers
symptom
scan
colomb
afc
committing
corona
distributable
312
expansive
243
formulations
foreclos
simulation
entrants
officers
posture
automob
restrictive
centerpoint
competitively
simpson
joins
reopens
donor
respects
respected
switzer
pharmacies
shopper
retirements
770
prioritization
limitation
preparedness
herb
2035
conservatively
##iki
forgiven
delevering
furnace
datas
pcr
displayed
belong
consequence
frictionless
struggled
cooler
monetization
apartments
propelled
citizen
affirmed
vegetable
intermediate
cluster
redesigned
tmtt
palm
mistras
independently
corridor
giant
boiler
reevaluate
buffer
wolfskin
female
##investor
aspirations
thriving
compliant
telecommunications
stephanie
liggett
fibers
actuarial
libya
colombia
switzerland
ao
bes
cow
dense
erik
gif
gender
hd
ics
lind
mm
nab
rally
rgm
sd
sab
sasb
tys
va
##ocus
##uits
##hot
##kes
##kiki
##bore
##burs
##inos
##itized
tokyo
##icus
##icul
reve
ash
shield
advers
struck
compass
cob
coordinated
perce
##apers
leidy
acs
enforce
fox
##gry
boating
boots
wellbore
noticed
relation
termite
##entials
genom
##ference
builders
progressively
259
extr
attending
disch
momentarily
##week
phili
uti
northrop
##plant
237
neglig
arc
measuring
274
264
ordinary
surging
287
reserving
connectors
2006
293
326
barrier
343
charged
395
aero
southeastern
campbell
differentiates
differentiators
weakening
millimeter
installing
explan
budgeting
730
delaying
025
solarwind
840
860
amphen
audits
determining
drawing
recycle
scalability
##agram
rightsizing
honest
inorganically
athlete
rationalize
scratch
##evron
concession
bandwid
relocation
garner
sandwich
propeller
pounds
judgment
signings
waikiki
dislocations
intermitt
qsrs
hypers
altium
npls
snacking
precisely
downgrades
condensed
tenth
darling
submarine
literally
imbalance
brewery
salvage
julie
regenerative
fenestration
horsepower
taiwan
nabors
philipp
amphenol
bandwidth
aqu
cft
cave
dub
fear
gumm
g4s
han
hinder
ju
mg
mas
mak
nhi
ninth
pd
ryder
sail
sick
tam
tone
wer
##dor
##dles
##pik
##trod
##vp
##hill
##horn
##fin
##wart
##gar
##enbrand
##ura
##iters
tomm
##entures
reth
reaction
##etes
marl
comply
computer
##osc
##chron
##chester
opec
##otes
##otic
chemed
##ellow
invite
invalu
##lla
decommission
outlay
considers
spine
preview
sav
ami
refocus
##odes
annaly
builder
##keep
12th
experiment
envision
sublet
wouldn
256
251
colgate
revisions
evs
distract
presold
platformdig
carquest
broadest
##aleigh
354
structurally
smallest
accessing
reinv
reintrod
##ypyr
testim
airports
waterpik
senate
billboard
moderately
originate
landing
entirety
privacy
communicating
##boat
selecting
##azine
walgre
fallen
individually
fulfilled
emphasizing
880
reconf
externally
calculate
rounds
answ
prevailing
affiliated
furnaces
hillenbrand
misight
probable
motorhome
payouts
franklin
municipalities
undertaking
equaled
tourist
sporting
obtaining
epis
rewarded
gigabit
showcasing
curtailments
experis
reimbursements
bolstering
syndication
wearing
affirming
molecular
cinemark
igaming
abundant
defaults
veterans
brookfield
forestry
removes
clusters
deductible
gbp
bridges
ghg
sealing
surfactant
survive
mercury
awaiting
mirror
woven
birth
replicate
intersection
british
lr2
diabetes
writings
stuart
negligible
solarwinds
tommy
rethink
invaluable
platformdigital
bpl
dms
ews
fsp
gam
hong
hpc
lor
lisa
outer
pou
rans
raleigh
ster
sbs
zinc
##dit
##ei
##rice
##uk
##mr
##mgm
##flix
##arch
##inger
##reight
##isphere
##lyn
constitut
##irl
##essential
alb
##ander
##oubted
overlay
##libur
##lister
##ife
##unte
applies
##forming
##ghan
firsthand
remeasure
##ancings
usda
repur
outlines
netflix
marginally
positives
socially
##ops
hex
lien
volunte
undue
undoubted
beta
betmgm
hallibur
dozen
techniques
versat
11th
roster
scor
initiate
253
revamp
attacks
afghan
229
confirms
distort
avoc
##wealth
detro
electrif
norms
316
representatives
arub
##ube
competencies
359
ordered
drain
273
269
vacations
handing
knows
automating
flexrig
298
owns
commonwealth
555
dropping
coverages
386
397
replaces
edible
franchised
##aneering
trio
settling
rebounds
tighten
jointly
provisioning
labels
780
roads
710
repaying
ppi
negotiate
polyester
bode
diagnosis
aimco
qualification
tells
superst
hollister
ebitdarm
composed
gatherings
oceaneering
debts
monetizing
cabot
involvement
alumina
windows
contemplate
fragrances
losing
magazine
swiftly
laura
laurel
tablets
sapien
reactivation
overseas
christmas
phenomenon
gbx
brinker
triggered
santa
zoom
encountered
deceleration
influencers
##product
alberts
redundant
wipes
summerslam
revisit
srp
cytiva
cowork
##icuspid
philippines
walgreens
ransom
undoubtedly
halliburton
aruba
cep
cbre
cumm
dw
dose
eve
etc
fc
fad
hilton
rus
rces
sad
tay
vapor
wynne
##oque
##aft
##iary
##vity
##sf
##ruction
##cin
##hal
##hou
##making
##fers
throw
##iny
inability
##rosion
##rey
reac
stems
stub
209
explo
alc
alam
##gevity
marri
marvin
marquee
ops
church
trav
##roup
approve
unman
spark
pointing
##agen
tek
workday
sauce
greif
generator
longhorn
nonacc
reston
ecs
307
paydowns
211
evp
fred
distler
phot
insulated
utah
safest
esol
counties
unclear
turnkey
tracks
corporates
277
279
266
263
sections
deferring
entr
enabler
purification
diving
321
filters
raises
watermark
waterfall
##olson
374
388
advantageous
shipsets
399
emergent
devast
riggs
reliant
445
donated
donalds
refinancings
paths
immun
shoes
predicting
610
##shire
accomplishing
##heid
banana
resumes
lags
ecosystems
eliminates
rolls
destruction
railroad
warrants
qualifying
depths
hawaiian
validating
viable
facilitated
accommodations
pilots
rationale
accruing
counterpart
migrations
redemptions
cvr
warranted
sweat
arrived
arrival
dominion
contemplates
royalties
hurdles
lauren
avenues
culmin
tablet
desirability
diminish
intensified
moratoriums
napa
entitled
nonoperating
dupont
orthop
distinguish
stainless
combustion
autozon
immersive
peachtree
pascal
vintage
pertaining
reestabl
automobile
intermittent
marlboro
coworkers
ransomware
cepheid
donaldson
8th
bick
batt
baham
dated
dict
gor
hes
iphone
jum
kir
lon
lun
liz
laps
molson
og
papers
ru
rms
sj
sid
tum
trou
voting
wm
wing
##do
##ny
##rag
##uilt
##moor
##kins
##wave
##erts
thin
thru
##oni
##orius
##alities
##icop
##icious
##relation
##ste
rever
##illi
exhib
##artered
stating
##celer
##igor
oncor
incumb
inches
contr
alaska
ang
##aport
nebr
##sey
##lips
##aceted
##otine
chalk
tricuspid
moon
earliest
outfit
outbound
##ointing
netted
unith
intren
notices
timelines
segreg
transm
heels
curricul
solic
annum
nonessential
depic
consumed
furthering
nearby
faces
##assy
attorn
##weigh
mentioning
correlation
presently
carp
smack
##awn
broadmoor
grab
239
doublepoint
parame
mini
renewing
272
variations
surf
simul
connects
specialists
officials
##raising
boardwalk
instagram
founding
airview
322
328
traveling
weathered
visited
patience
slowdowns
349
admired
mainstream
multiples
captive
untapped
415
identical
fung
analytic
responders
tremendously
pacing
stabilizes
medica
supplemented
pulitzer
sanitation
drawdown
embassy
##athy
multifaceted
imagin
repeating
suffered
parker
stacked
##afar
bridgeland
rankings
hills
routines
confirmation
geared
borders
homeownership
kidney
renovations
showcased
debentures
widen
rfps
appealing
nicotine
waiver
unknowns
biological
millennial
hoping
listeners
precautions
scotts
soybeans
cultivating
silicon
tranche
jennie
crypt
tackle
turbulence
tunnel
victor
dissip
disputes
denominated
fiduc
kpis
championship
midsized
acknowledging
pnc
rooft
belgium
sunday
reveal
mako
weren
testimony
afghanistan
cummins
taylor
wynnewood
reacceler
nonaccrual
bickford
jumbo
longevity
liza
incumbent
nebraska
curriculum
attorney
aisle
cis
cpr
c2c
fms
jcp
kat
kess
les
lum
lord
nps
nba
oc
pj
ptc
rd
rare
ram
rpt
rps
rpm
wss
walth
##eb
##nage
##nacle
##tar
##rating
##car
##hc
##hard
##felter
##group
##bons
##erland
##atfelter
##ece
reuse
##tering
exam
stan
stuff
##ole
##essed
seaport
##andin
cod
coding
chen
##elle
appliance
invista
##ivo
remiss
uscell
outlining
transplant
brilli
significance
digging
cryst
bets
accred
halo
infl
consuming
designing
subordinate
eclips
30s
midway
advised
scandin
14th
fredd
fundraising
flaring
emerson
distill
presidential
507
506
anytime
maintains
percentile
##plc
countless
owed
paras
stocking
##levue
confidently
286
collecting
connector
##ontract
80s
tenancy
utilizes
327
foodtech
cycling
dealt
designated
holdco
poll
371
423
borrowed
448
##ysis
possibilities
apis
635
affords
afforded
predicated
frameworks
prioritizes
glatfelter
mergers
summarizing
690
johnston
biopro
striving
protocol
reconciling
convergence
observing
warner
terminate
qualify
repeatable
furnish
ebitdax
orient
miso
upsized
##hydr
cmt
microbial
teleph
telemat
epic
commencements
piloting
bellevue
trees
styling
hurdle
vegetables
revolutionary
trophy
hampered
neighborhoods
bern
scarce
subdiv
tanks
a320
tranches
skewed
densification
pinnacle
fostering
cardiac
column
dispensing
oilseeds
hammer
##dorf
##keeping
detroit
superstars
autozoners
waltham
uscellular
freddie
bioprocess
telematics
ae
cents
dyn
dcs
doses
fat
fli
hip
hans
hence
hog
jbt
lance
lite
mines
nond
nix
pod
rug
ridge
sulf
tin
wan
zones
##oy
##nex
##iabank
##lants
##uge
##uum
##mination
##makers
##bold
##bank
##inda
##ano
##asia
##etric
##thetic
stance
comcast
##olic
grove
marit
implants
##chain
resupply
##outh
hazard
overarch
levi
##lout
willis
##astically
##ifiable
recessions
##ellation
appr
##iprise
commons
unwind
unaff
performers
ages
aged
##ensively
workplaces
pandemics
generators
valero
taxpay
enviable
302
helicop
midterm
keys
ameriprise
whereby
258
254
revaluation
attivo
##ounding
conflic
lawr
phasing
presort
17th
carpet
detention
openblue
condo
powercore
314
digitize
249
argu
lessen
consolidations
renters
rentals
banker
formally
premiumization
vacuum
defend
handset
accessed
compensate
activated
airf
idled
passage
fixt
landed
courts
catalog
346
##iano
394
blatt
bottle
synnex
accountable
planting
brist
bottomed
##emphas
winds
modernized
515
collaborated
##insic
necessity
ceos
720
blockchain
clinic
920
penetrate
satur
precious
pursued
striking
controllable
leaned
brokered
narrag
expressing
obsol
establishment
influx
recapitalization
treasuries
convention
underscored
names
quantity
underpins
attendees
vii
turnarounds
facilitating
archived
resonated
seltzers
undertook
succeeding
sportster
liner
unmet
avoidance
islands
burd
ranks
metrology
ambitions
fertility
dialysis
cvs
bayview
intensely
thresholds
##uels
recaptured
molecules
documentation
stopp
montney
melinda
citizenship
drinking
carton
bundled
stretched
truist
junior
attempt
failure
flattish
pellets
constellation
recreation
smokers
saucony
kristen
umbre
uncollectible
oxygen
alcohol
understood
crosst
rosa
crafts
horton
language
intrinsic
scorec
marriott
bahama
lunar
carpenter
smackdown
fiduciary
kessel
parasit
overarching
lawrence
blattner
narragans
bun
blow
bags
binding
ci
dish
dfc
eg
fitch
gt
gcs
hough
hang
jared
ka
kits
ny
nurt
rub
rhy
sonom
tet
tpp
tide
tune
tbas
vet
vote
vascular
##ogen
##ded
##rid
##rue
##card
##lary
##fins
##wi
##wal
##itu
##rea
reem
convey
forens
##idity
##utilized
alle
shawn
anx
anom
##osite
imply
implying
byproduct
##quote
##allow
pray
loi
mover
newb
costa
reper
repower
reprice
##fitness
notional
saves
redhot
generics
##uesday
declare
opposite
regis
diver
backfill
infusion
brandy
credibility
13th
attitude
flag
emc
228
confidential
liquidation
presidents
utmost
##licit
counting
318
digitizing
everywhere
##ubsc
358
football
myday
myfitness
vacancies
289
auv
handsets
##osphere
ensured
tenured
hardwood
clouds
softening
landmark
372
373
347
381
protections
424
elastic
enablement
##ervision
411
##backs
touchless
findings
curated
775
divisional
complementing
tooth
##athan
predictability
##uilders
carriage
2031
calculating
bids
tenders
matched
pharmaceuticals
quantities
wildlife
reversals
viol
goldfish
chipot
characterize
surveyed
screens
formerly
reinforcement
registrations
b2c
diehard
diebold
relocate
deductions
coaching
dominated
judge
reservations
steeper
accompany
entrepreneurs
wheels
marshals
differentials
bbva
samuel
climbing
disproportionate
discovered
hemisphere
resistant
memorial
heroes
tiers
bundle
deadline
overdraft
uniform
bpas
bumps
coopervision
invoiced
hydraulic
academy
ajay
olympics
tnk
##held
olefins
prevalent
biodiesel
shareowners
refractory
foreclosure
rgmz
enforcement
remeasurement
alamo
travism
##stein
exhibition
rooftop
pjm
cheniere
furnishings
airfreight
bristol
umbrella
narragansett
houghton
sonoma
tppl
myfitnesspal
brom
colo
cdp
ea
hat
hart
hugh
hhi
hplc
ia
jess
kenn
lyn
morgan
nip
pope
ppt
rc
r2
sart
taper
tensions
tuesday
wol
xia
##dome
##pa
##sen
##laid
##uitive
##master
##fare
##gering
##giano
##onics
##onference
##atics
##aler
##alian
##rose
##stery
reed
reap
quota
forget
comstock
##ueling
alliances
shot
sewer
adtech
##andum
##abs
neil
neither
leach
chevron
recast
##izen
##ends
pronged
abm
abilities
abroad
investable
costly
outweigh
unam
lowes
notified
indefin
transdig
flowed
ebita
bucket
backb
accenture
accrue
301
credentials
roop
justified
antenn
21st
disburse
distressed
platinum
utica
systemic
eurasia
arrive
winner
stockp
261
601
defensive
persona
implementations
pura
soften
336
338
barnes
366
361
362
rebar
pocket
446
413
provin
winding
535
hospitalization
minds
585
weston
persists
cease
harbors
firmwide
professionalism
describing
crossing
fortify
sanction
indexed
bears
procuring
artists
vastly
adaptable
optum
drops
##afe
aims
matches
directionally
routes
fifo
brightree
beautiful
lawn
lengths
osg
undertakes
resets
resetting
replenishing
teleconference
escalators
##tops
cambridge
okay
diamides
timberlands
lapse
##corp
jumping
register
shelves
consequences
noticeable
deduction
decisively
arriving
syndicated
amenity
magic
maggiano
feedstocks
rallied
marshall
amendments
inspections
culinary
textron
disappointing
advocate
fnf
hampshire
memorandum
faith
shrinking
jonathan
santander
appalachia
algorithms
decorative
flattening
bowl
constitu
dampened
##atheter
cognate
renegotiated
orchard
sauces
transcatheter
alleviate
oliv
pineapple
onsite
doctors
ercot
kleen
totally
tcfd
inevitable
ideally
dioxide
thunderdome
hdfs
adversity
cobham
discharge
gummy
repurpos
albertsons
russell
unmanned
crystal
scorecard
nipsco
sartorius
transdigm
cans
cited
dump
dws
dcf
d2c
ft
fal
fish
fighter
gav
hone
hbo
kings
kitting
lunch
nol
ped
rt
rush
slo
sfr
vail
vizz
yout
##overs
##next
##pad
##iy
##vals
##uine
##ya
##wine
##bp
##bot
##zu
##ints
##uri
##urb
##anth
##ilings
##ilia
##reet
##oman
##illance
##used
incons
##ulous
##lease
##ortized
alloy
allied
maria
2029
##andon
strand
coca
peru
##chat
##chedul
resilia
cham
##elect
basins
abi
abandon
moham
pledged
italian
spares
endor
relet
allison
sop
refi
heaters
genuine
someone
longtime
##btu
halted
docket
technically
depress
subset
restructure
##ept
buildup
root
advising
digitalization
facets
cola
frames
employing
needing
peaking
afex
flir
accelerator
innovator
##licity
meta
##standard
smid
solidified
40s
multichannel
arrow
##ubric
##lington
parad
protracted
283
schol
automatically
boarding
##eyville
455
452
297
291
29th
333
lands
courier
courses
viewership
designation
promises
referencing
3000
culturally
392
elong
navigation
##erald
blake
merits
tried
incentiv
penalt
545
shoe
weakest
necessit
632
aggregation
ceilings
harness
765
##aha
walked
badger
emphasized
concerts
820
910
reminders
resolving
firef
establishes
metalworking
##need
quantum
homebuilders
surveillance
holm
athene
reimburs
denmark
reacted
##glass
celebrating
telequote
corrections
counterm
pcd
realigned
contempor
lpg
ltm
headquartered
discounting
exemplary
oversubsc
dominant
vestcom
russian
assembled
skincare
lamb
thoroughly
advocacy
##ettes
dsos
diminished
hyperson
basketball
disconnections
coffeyville
scotiabank
jacobs
gigawatt
watson
ladder
##green
corridors
worsening
jennifer
sincerely
turbulent
relaxed
hardships
reclassified
indianapolis
repeatedly
overhauls
reimagining
overlap
dashboard
prestige
emotional
recyclable
gifting
tyson
genomics
decommissioning
avocado
dwight
gorilla
segregated
parameters
taxpayer
brandywine
wolver
unamortized
backbone
vizzy
youtube
inconsist
penalties
oversubscribed
bacon
bedding
egy
eei
erosion
fs
fh
gs
gic
gun
gases
gina
gdit
hulu
jere
jlt
lan
lubric
mitch
nc
nisource
oci
pag
rer
tc
zip
##di
##iers
##ians
##ique
##via
##cation
##ui
##uven
##mer
##zens
##0s
##erves
##arc
##alty
toled
##roy
##ilo
##ecd
##terior
##ills
##veris
##utions
##irst
beacon
dei
alert
altered
seism
##adm
##aditional
##apse
subt
##sex
lew
leante
enrich
orange
##eland
##unk
upsell
##izers
##izant
##iper
prison
decrement
plain
usp
approving
reps
reposs
outstand
comparables
unlim
intently
intuitive
retentions
posit
gop
amy
refueling
genesis
##oda
excav
nons
nontr
dipped
backing
##olders
dozens
equate
exceptions
substandard
payveris
rochester
25th
pepper
22nd
divide
retailing
insurer
norway
northstar
autos
multitude
ard
winners
matured
351
statewide
structuring
draft
##onstruction
deferment
accessibility
2004
459
activate
294
airlaid
##scap
324
filter
classic
billers
legend
332
visitor
famous
348
344
383
384
simpler
426
deepest
deepened
elite
edison
##alued
442
synthetic
underwriters
participant
465
penins
responsiveness
##ocal
minded
pathways
495
standardized
harsh
685
encouragingly
intends
indexing
redeterm
subsided
streak
tonnage
recruited
bullet
kinds
colleague
reiterated
conductive
rightsize
woodlands
optic
aiming
videos
bonnie
forgings
paving
missing
viability
ipn
probability
magnetics
surprises
escalations
succeeded
telephone
distinction
african
intentions
##mob
rocky
rockwell
abatement
empowered
witnessing
galax
stylist
rmd
forthcoming
bloom
blooming
redeeming
intermedi
withdrew
hallmark
raymond
forestar
intensifying
unfolded
ddg
watsco
spiked
tanzu
pgim
dresses
ignite
##athew
article
cognizant
cheaper
alexand
voltage
jamie
mosf
sample
encompasses
overwhelmingly
nederland
rejuven
singularity
abnormally
matrixcare
biosciences
pims
##advis
lobby
cameron
configuration
lsag
ultim
compassion
answers
hexcel
ruger
unitholders
victoria
leslie
scandinavia
nixdorf
saturday
rhyth
tetra
travismathew
iaq
wolverine
egypt
jeremy
seismic
leanteq
outstandings
unlimited
nontraditional
peninsula
cater
cord
ez
ele
fia
ges
gis
gib
ht
hik
hunt
hecl
iter
jol
kan
lenn
lmr
mav
na
nus
qs
rere
rfs
rups
ssr
tall
wcs
##oth
##col
##ka
##wing
##zy
##zed
##90
##jet
##21
thail
##ini
##inars
##enet
##eness
##eners
ink
ing
inver
##urot
##atories
##alo
##anim
##rex
##street
ree
reimp
revert
##terra
##etry
quay
asr
stap
stall
proli
incub
##leans
##rip
dew
deem
deicing
##ppable
##ersurgical
isai
##imilar
marc
marke
mariet
margar
seats
angry
anecd
adhere
cove
cough
##aded
pertain
oversh
lee
##lio
envelop
##umman
chrom
orion
oracle
orleans
reced
reconstruction
uphol
firing
abated
firstly
earmark
plug
unanim
spam
spans
boise
clay
gover
teraw
cranes
crushing
unde
declar
underv
baltim
betty
regain
##ibbe
##ulton
306
308
estee
roots
gauge
needless
attended
floss
flights
flurot
topo
specs
caribbe
distributing
shorten
313
grumman
##nell
##plate
esco
essex
entergy
arth
##uben
competency
shoulder
smallcap
resides
deflation
handb
accessory
reaches
458
recoverable
steuben
houses
323
occupational
buyout
seniors
##wayne
softened
restricting
landfall
378
packs
387
maine
essence
macau
printers
meritage
yours
brex
477
triump
tripling
hispan
administered
impressively
swed
swings
walt
apm
cardiva
stars
stark
consultation
installment
replacements
explains
curt
listing
subsect
645
irre
newsweek
impaired
fortress
fortified
747
815
ranger
ppg
herde
compounds
reminded
converged
##luent
bikes
layout
workspace
turmo
warfare
inspir
ethical
compressco
houlton
##afusion
clark
upturn
ticketed
walls
reversing
philanth
facilitates
verathon
err
radios
panama
memberships
fabulous
damaged
damages
replenished
aspire
aspiration
links
diamide
snapback
mattress
msrs
novo
metros
##casting
depends
vitafusion
clubs
diamondrock
1995
arrivals
gratifying
routinely
judicious
csi
weighing
deliberately
preventative
wrapped
hurt
collaboratively
fighting
comparatively
aaa
analyzed
vulcan
cargoes
resistance
lenses
nasa
wyman
neurotech
moviegoing
psps
##minal
adhering
trigger
crackers
decoup
clicklane
substrate
unpaid
recreational
festiv
surfactants
deceler
ceded
hollywood
coopersurgical
intimates
intimacy
biofinity
eaton
ctv
urology
gravity
beneficiary
concurrently
sneaker
symptoms
outerwear
hesit
bioprocessing
maritime
unaffected
kaizen
bromine
olivier
mohammad
scholars
toledo
galaxy
hecla
lennox
thailand
isaias
marietta
upholstery
terawatt
baltimore
flurotec
caribbean
herdez
turmoil
philanthrop
cust
cushing
dsa
hni
hvp
ipt
ims
kb
kel
lu
lion
pall
pie
pitch
pyd
ryn
roper
tags
ubs
wise
##nology
##pres
##prop
##tively
##ij
##rac
##rene
##har
##yard
##givers
##bury
##19
##2phone
##aro
##aried
theinvestor
##atization
ofge
##reated
##repres
exterior
conform
std
##iguous
deere
##estand
##ersys
isra
shout
sel
##oup
opco
opeb
enersys
orv
trinity
recoup
moz
decont
customization
offensive
consign
net2phone
unh
unbe
spun
sperry
endless
reluct
soda
refres
hei
heal
brady
##axypyr
##folk
##achar
undergoing
##ryl
nonprofit
cany
backward
accol
deprec
ecu
309
develops
##prin
scs
initiation
combinations
realistic
peiy
sheer
tops
##ovascular
insul
norfolk
mixer
processor
processors
detri
sms
elections
changer
grit
403
404
uncomm
occurrence
parag
353
caregivers
existed
clearing
systematic
systematically
automakers
steven
329
buys
originator
originators
restriction
espn
freestand
prominent
367
363
evergreen
soups
markdown
admir
simplicity
playback
footprints
aerotech
449
breach
437
donation
donations
471
467
##regulated
524
respectable
penalty
locks
commenting
511
cardio
briefing
austria
persistence
aggregated
affordably
commissioned
735
policymakers
785
worthy
carryout
715
glide
therm
740
810
circulation
educate
reinvestments
eliminations
understands
msas
reconciled
unsold
sharpening
mcr
mcf
streets
treasure
galleries
hots
opto
rounded
cumulatively
underpenet
copies
voluntarily
heartland
nutri
centricity
correction
adequately
laptops
suburbs
catching
showcases
widened
rfid
diamonds
vigor
exempt
graphics
toro
toric
wheat
skippy
recommendation
tapering
quarantines
collateralized
satellites
##roads
malone
npis
reactivated
reorganized
oreo
shortfalls
repatriate
hemlock
resistors
nasal
amplifying
neurovascular
ghana
kitchens
vpg
bradstreet
withdrawal
folding
festival
dodge
influencer
quadrup
compromise
keenly
rebalance
teachers
underperformed
bossier
exponentially
certificates
herbicide
dataset
explanation
hyperscale
hanover
sweaty
sjw
scottsdale
conflict
endorse
hypersonic
plainscap
jolla
dewalt
earmarked
brexit
triumph
hispanic
apmea
festivals
rynaxypyr
ofgem
##represented
peiyou
freestanding
underpenetrated
plainscapital
aure
bird
bone
cos
cory
dere
dues
eaf
fer
fbs
flying
fps
hanes
jen
jub
ky
kbr
kios
l3
mti
nodes
pto
rci
says
sizing
ts
tb
tec
tort
tsa
uan
ufc
wis
wend
yu
yum
zi
zec
zafar
##agh
##aire
##pac
##tex
##iom
##vies
##rard
##haw
##hang
##fi
##wen
##gro
##enosis
##ndryl
##rog
##roek
##anine
weve
reign
reject
reemphas
exotic
quaker
##earned
asu
stab
incin
incomes
##rior
dell
alask
isr
strain
compat
comping
coordin
grower
atyp
atneed
##uctive
##acron
##otics
cha
##qual
orkin
uptime
invesco
##ivities
##ondition
abu
movies
outboard
unrelated
manages
supplements
mezz
workst
sach
transfers
refr
refers
lib
vein
serviced
bris
craw
underrepresented
##ameter
diameter
backup
##ibv
##btq
doj
deserve
sublease
##veloped
##eps
304
nearest
##ourse
##print
##assure
collar
revital
commercialize
evoque
realizable
attained
flx
corevest
phill
liquidated
503
504
heads
metall
contractually
centuri
grc
gray
407
409
402
maui
multim
integrates
352
affluent
ifs
cleared
handled
handheld
reinstitut
calib
attractions
steward
airframe
cycled
commonly
originating
designer
barcl
promised
368
pole
poles
377
admit
655
logical
rebuilt
emerges
bottles
milacron
synchron
possess
418
487
479
472
bottoms
ultr
ultras
walter
accordion
##eek
stimulation
livewire
steelmaking
fastening
westwood
listings
assessed
stats
labcorp
870
925
situated
845
emphasizes
spotlight
825
ppa
securely
recruits
breakfast
exclusion
suffer
suffice
gerrard
metalcasting
nimb
illustration
optics
sunrise
silvert
watched
fluidity
daniel
prevented
holistically
rvo
olin
##ography
escalated
lincol
duties
##ologies
satisfying
drugs
unfolding
fmt
ngls
fabrics
ccibv
modelo
accepting
amenitized
signaled
backgrounds
random
persevered
azz
##tronix
hoped
cohorts
altria
bridal
truth
repriced
correctional
unleash
lgbtq
penny
trove
unpack
duplic
victory
oxide
biomed
uncollected
pmiers
staggered
secretary
hydraulics
oliver
sonic
guardian
reoccur
gravit
beneficiaries
concurrent
embarked
wilson
morbark
puna
##theon
riviana
feasibility
perceived
hindered
sailings
savory
distractions
reconfig
volunteer
entrance
tumult
surfaces
imagined
dissipate
ocwen
inflated
hazardous
crosstie
disbursements
##cheduled
paradig
excavation
ardent
bloomberg
alexandria
mosfets
rhythm
nuscale
prolifer
coveted
overshadow
envelope
israel
decontamination
kyndryl
alaskan
atypical
mezzanine
barclays
ultrasound
lincoln
aurs
arose
banc
barg
dh
dac
fum
fhl
fellow
gyp
geek
ihs
jac
kit
nf
nb
nft
p2
qr
rough
sag
slip
sony
trib
tsr
ua
vr
vid
vials
wed
yea
##eign
##apping
##page
##iking
##sum
##mation
##flex
##furt
##bed
##bay
##zhou
##50
##30
##arian
##edics
##ito
toler
toys
ofg
weap
##enting
rewire
##omer
##ears
forged
##vereign
stenosis
promp
explicit
deuts
whist
##ested
shing
shine
marty
coordinate
peripher
pervasive
##cher
##chem
##rombie
leed
acg
acutely
##umble
chuck
org
##iff
rech
aberc
continual
outl
ito
netting
unity
spa
##ilee
notch
endure
prego
##agic
sovereign
sao
transcore
##ople
refurb
bras
valor
##odies
guides
buckets
##ibillion
executional
##iously
deps
callable
deserved
subadvis
expensed
modify
propylene
successor
peters
dispar
correl
501
headroom
utc
carbo
northeastern
gra
joan
1000
maur
multibillion
uncover
medtron
pressuring
clearpath
##park
##parts
specialness
90s
457
traveler
##anchising
courage
379
dynamically
protects
cultures
396
393
venting
printer
paymentus
personalize
447
identifiable
481
authorizations
collapse
trimm
469
461
camping
minimis
536
tailor
crisp
locking
512
563
chopp
assistant
595
accretively
615
firming
##ahon
728
disposals
policyholder
exceedingly
980
prudential
penetrated
educators
subsidy
bioacc
bioprin
sharpened
destiny
sufficiency
susan
polyprop
bodies
influencing
ethylene
surgeons
earnout
unlocked
clarify
superv
satisfactory
cpi
reacting
frankfurt
rationalizing
telem
inefficient
nonrecourse
homeowner
##proof
avoiding
ibc
grocer
mastercard
trains
kicking
champs
biopharmaceutical
dependence
relocating
cruis
cruises
empowerment
garments
purely
cabin
cerner
mountaine
wishes
inherently
refinement
sprint
stops
redesigning
culmination
textile
autonomy
observation
npas
advertiser
osha
diminishing
memorable
tolling
independence
downgraded
juniper
attempts
tubing
tubular
bopis
mariner
pellet
boilers
tackling
unifirst
reclassification
oaktree
insecticides
compromising
reallocate
cosmic
immensely
powertrains
reimagined
rejoin
tractors
arbitr
arbitration
morbidity
criminal
##people
mcmahon
reengineering
antibody
belonging
linde
mmbtu
reinvigor
billboards
lorie
solicitation
reaccelerate
stanley
brilliance
##hydrate
rugged
parasiticide
##ridges
colocation
eafs
contemporary
decrementals
redeterminations
rejuvenate
ultimus
kanop
margarit
undervalued
handbags
sweden
scholarship
iptv
unbelie
aurelio
zipper
##agher
stabroek
refranchising
silvertip
biomedical
fhlb
gypsum
whistler
abercrombie
subadvisory
carbohydrate
medtronic
bioaccord
polypropylene
a2
bt
born
bmo
dor
dice
fand
fios
fdic
gilly
hs
hil
hhc
jek
kap
lakes
lars
lanes
mi
ml
mute
mwi
nsf
pig
punch
rp
sut
tes
tas
ties
wired
ze
##ool
##oia
##neo
##nival
##note
##poke
##paste
##lest
##mes
##yll
##bust
##zone
##invasive
##arf
##esc
##esia
ingen
inhal
##atar
##athing
##itow
##ila
##isys
##etis
##ids
##idable
staging
##usiness
##ull
##ried
##mph
##ustic
whirl
sher
marcell
sees
sead
adrian
##aba
coil
cohes
covey
peril
resi
nept
##acare
##acio
##acular
##otaro
##anta
##anticip
foina
recondition
recapping
highways
##udc
##ometer
##alls
abel
earns
remediate
unn
unrel
unprofit
unanticip
spurred
manitow
wellbe
pose
gov
amt
seeger
bra
monotaro
10b
19th
undercar
noninvasive
regaining
glove
gloves
howmet
equating
##leton
payer
symp
sequoia
commercialized
frust
successive
closest
realigning
afudc
acceleride
species
riser
laird
##cedes
505
carnival
smel
solidifying
broadline
gras
greco
singles
stored
mapping
arre
owen
closeouts
seasoning
sells
pars
357
356
wanting
orderly
minne
rentable
footaction
runner
towards
simon
postal
boards
454
attraction
squad
stewart
airassure
applicants
criticality
idc
337
339
334
##yne
visa
wrong
556
publicized
engineer
342
admiration
427
428
##iann
391
frontier
elder
edition
blair
relied
milder
skip
mobil
mercedes
443
breathing
happier
underwritten
412
485
476
##rela
minimally
537
534
519
518
497
491
494
preparations
587
637
aggregating
harris
665
667
snyder
fiberglass
726
medication
irma
optioned
treaties
amounting
thermo
##heim
940
790
embed
florence
##pool
##pots
atmosphere
urge
msci
exclusions
catastrophic
suscept
turbo
adaptability
cancel
sentry
payrolls
wafer
waived
suspend
spectacular
##nesday
routing
boosting
boosters
accommodation
refrigerant
scrut
telehealth
migrated
informative
conditioning
dispers
refreshment
blueprint
harvested
etg
##comb
sandy
indirectly
kenya
voy
discounted
webster
interestingly
##onym
steepening
caught
painful
springs
skipper
habit
aurora
sensitivities
dickies
redeploying
tmall
injuries
granite
stickiness
dimension
attainable
shocks
privileged
vectors
zoetis
incrementals
polyolefin
dampen
articulated
boundaries
mentors
##cloud
orchest
cooperation
pfas
##production
lightsky
journalism
aecom
ldc
doctor
sacrifices
bioscience
subcontract
barbara
exchanges
precipitation
aoci
electrified
tektronix
devastating
culminating
tabletop
contrary
fungicide
crypto
flipping
hansgro
fixtures
ciadm
prayers
toothpaste
chipotle
hughes
indefinite
alloys
elongated
jltv
pagoda
uspi
stylists
marketers
anecdot
arthur
##harris
canyon
accolades
insulin
jubilee
l3harris
incineration
librela
wednesday
deutsche
outlays
grainger
choppiness
jekyll
ingenuity
marcellus
seadrill
neptune
foinaven
unrelenting
unprofitable
unanticipated
manitowoc
minneapolis
hansgrohe
ace
bor
bounced
bachar
din
dix
dfast
eig
fas
fres
fargo
hc
hits
jd
kc
kal
kate
kathy
loun
lays
mb
mim
melt
niel
nsr
od
pne
psr
qq
rou
rides
sic
surr
ssg
tip
torn
urea
vw
wps
xue
yar
##een
##ehan
##vo
##vascular
##sight
##ran
##clean
##lonal
##uition
##medi
##yles
##war
##wes
##gments
##bec
##bles
##bling
##ja
##jan
##26
##23
##inas
##enz
##enov
##esape
inn
inequ
inhere
##orters
##rot
##angh
##ilib
welf
##icy
##storm
rework
##tha
quotes
fortive
asps
stip
##igo
proass
prohibit
ontar
##olas
##ira
##leisure
##rium
explos
beld
defic
contiguous
##ersi
##gel
shamp
shangh
marathon
analog
strained
resmedi
##apure
opg
##uctory
overhang
##amed
chees
chesape
focal
recurrence
##emn
##eman
appl
logan
mother
remix
##iston
casinos
costing
usd
##ardi
cashless
consent
unvac
unearned
bout
clouth
pregn
server
##ails
agrib
terrib
inde
saved
interp
libr
covid19
gennext
bron
slugg
generational
monoc
monica
crb
##ods
##avi
##aville
declaring
buoy
underest
underutilized
organize
equip
infr
grossing
desires
restated
paypal
##pring
modifying
modalities
keystone
freeing
proport
creator
fruition
needle
sheehan
emerald
disk
16th
sharper
pasta
carlos
carwave
##center
directv
powerhouse
capacitors
trapped
grapp
406
largec
optimizes
meds
categor
roland
talents
drastically
tracker
variation
281
288
28th
laboratories
deferments
uniqu
##onto
ensuing
caliber
attracts
idiq
elevator
classroom
questar
designers
promin
unitary
slowest
##ynamic
652
rebates
421
422
deepwater
elm
blade
introductory
441
affects
474
463
464
hearts
577
513
622
624
legacytex
consultations
617
commissioner
housekeeping
disclosing
930
treats
975
circle
sanad
835
educating
presenters
pursuits
eastbay
reconnect
bioproduction
ppd
##ennial
tonnes
imo
fitting
horacio
narcan
kindred
blackrock
blackcomb
gallagher
lifestyles
earnest
wavered
suspending
honors
appearance
agrinos
insightful
hole
upswing
athleisure
cpap
correspondingly
switched
accommodative
cyberatt
creatively
##books
celebration
celebrations
respirator
respirators
camb
knowledgeable
resurgences
rotation
enactment
##prot
kob
snapchat
burke
renovated
servicer
relocated
etr
padd
garage
unfortunate
deteriorate
exemptions
exhibiting
earthqu
sophistication
vested
chartered
refinements
injectable
graphic
gpf
magma
torque
assigned
karl
mrna
astounding
gbsd
reactivate
advocates
weighting
sticking
corpus
amplify
harmon
biosimilar
homebuilder
##uffy
mdi
reenter
mistake
cartridges
entitlements
cultivate
grip
troy
marinas
silicone
failed
icons
pfos
tracepoint
montego
dispute
disclaimer
exhausted
sacrificing
slipped
tractor
approximating
prestigious
rebranded
apti
feasible
electroly
debuted
besides
extrusion
pouches
constitute
versatility
##cinated
immunity
counterparties
depicted
codes
eclipsed
orientation
dynex
burdened
reemerge
newbuild
antenna
repurposing
fhfa
lanier
lewis
positivity
bloomingdale
ingalls
undeveloped
decoupled
consignment
unhedged
cardiovascular
hotspots
wisdom
reemphasize
tumultuous
nbcu
bioprinting
kanopi
margaritaville
fanduel
tesla
whirlpool
wellbeing
10b5
arrears
mentorship
bacharach
xueersi
##western
welfare
proassurance
ontario
belden
shampoo
shanghai
resmedians
chesapeake
unvaccinated
agribusiness
sluggish
monoclonal
legacytexas
1a
apl
burning
barges
cu
cind
cagn
cafe
du
duc
diod
dai
duke
epo
fmp
fare
fats
gord
gilt
gto
hicks
hme
hfi
jp
jor
jag
jpm
kount
kurt
mere
maker
ni
nig
nug
nrs
pge
pfs
pdp
qa
rud
rustom
ss
squee
til
tile
tale
tips
tsys
tsi
voted
wn
watts
yog
zor
##dney
##eals
##nor
##pb
##tec
##iating
##ients
##iotics
##rent
##rack
##right
##liness
##lace
##uated
##uard
##mi
##500
##15
##inks
##inci
##esi
##atism
##educt
##edyne
##itos
topp
topped
##eton
##eties
##etta
##thew
asyl
stal
prompt
##ersh
alo
alter
##anda
complications
coated
coaster
##ador
##chen
reskill
##apa
atc
##umulation
chill
chad
chlor
##iffer
footer
uphold
marketed
salespeople
appeals
##ipe
prag
loose
decide
investees
##ancere
##iscend
seconds
itc
adjusts
spur
spear
boem
lowers
##ilea
timed
retr
servers
indemn
##ager
workout
workfor
socc
ames
heated
brend
brass
redirect
slack
guys
monitors
volterra
butter
##odic
##acht
underne
oneok
diet
canned
accumulation
executions
acquisitive
twin
twitter
versions
callers
subrog
restock
roes
modes
noble
itsm
eviction
framing
lets
##ostic
afram
distant
distech
avi
safran
worlds
anyway
sawlog
electrom
detailing
shortening
autop
grains
408
baseload
optima
particulate
fleece
##redit
mats
parrot
roller
talks
runners
ordin
formulated
formidable
##bron
605
defines
collectability
flatten
specialist
regarded
2002
453
tenac
steers
steak
airtech
technologically
viewing
viewers
barn
tempur
cleanup
unitil
domains
559
553
554
navico
389
claimant
398
spreading
mitigates
printed
aerial
##bob
constraining
breed
underwrite
414
489
482
donors
478
##neros
533
528
wholesaler
492
548
543
prepa
paced
milling
fastener
599
westar
persisting
638
613
sensient
672
674
statute
disposed
960
945
feeding
measurements
797
instruction
999
bioenergy
herc
citycenter
conservatism
derive
image
mcg
mcba
destroy
pretz
firearm
humanity
lasalle
teledyne
wailea
superstar
menus
flavored
definitions
cop26
erm
fluctuation
resonates
lengthening
switches
characteristic
##loaded
gathered
ingrained
avoided
##media
contingencies
piloted
shelby
belvie
novapure
harvesting
energizer
hpmc
noticeably
outsource
diseases
musc
riio
assuredim
quebec
cvn
cyclicality
dcp
attached
exhibitors
##auer
##2023
louisville
flyers
documentary
stopping
masked
hygien
pvc
martine
##brands
npi
malls
redeployed
tactics
nasd
intensify
fauc
treehouse
eagerly
##ecoach
condensate
titanium
nonoperational
renaissancere
worsened
visuals
tuned
cheap
benign
tuition
oakland
transcript
insecticide
biofuels
axa
cfpb
pierce
stagecoach
baa
sweeping
efx2023
reallocation
rearview
downloads
urolift
abnormal
jurisdictional
reservoirs
davita
davinci
admittedly
bareboat
exchangers
substance
precipit
bespoke
sdg
honestly
garnered
episodic
versatile
revamped
battling
cisneros
warnermedia
telephonics
subdivisions
nondeduct
arguably
craftsman
lynn
constituents
slots
reimbursed
inconsistent
repossessed
eleven
pertains
declaration
hesitancy
spunlace
refreshing
detrimental
uncommitted
paragard
hanesbrands
wendy
multimillion
paradigm
yeah
shingle
peripheral
rpai
##escence
unnecess
amteck
susceptible
sentryone
##onymous
pneum
qqq
explosive
library
infrared
largecap
medsurg
uniqueness
cindy
cagny
epoxy
jorge
jpmorgan
nigeria
zoro
toppings
workforces
soccer
underneath
subrogation
aframax
belvieu
1b
3pl
5th
burr
bag
bike
borne
clop
d1
e3
eac
eip
fi
girl
hid
i2
ipos
josh
kw
lip
lgm
luma
mes
moun
mined
nan
nols
nik
nfe
oq
oge
olig
pb
pend
rb
rid
rab
ria
rpl
sul
song
sfl
tenc
ugi
v8
vanc
vangu
yellow
##oven
##die
##naker
##nostic
##pired
##run
##cam
##lide
##larg
##uation
##mount
##kc
##kar
##ych
##gg
##bar
##bud
##bble
##building
##zan
##erch
##inal
##ari
##orad
##itz
##itably
oft
##asol
##ecredit
##entiated
##iclean
##reen
##stocr
reus
reag
forge
##idian
stone
##iger
##oll
##irts
20th
dewater
dewayne
wharf
containing
alerts
mars
marci
adc
strat
strange
cock
##ouver
suvs
hagen
overly
##amin
##liers
chi
ormat
tracing
trilo
recons
##kets
##eller
##emon
##emar
invasive
loos
ablation
remedi
remerch
productions
##istat
plum
outst
outright
consort
conserving
unim
unions
worry
spc
spice
boot
suppress
suppressed
clause
intimate
##sett
mez
meats
memph
agnostic
terry
##ensia
##ensional
socal
ams
transpired
interstate
refuse
hey
heath
hevs
solensia
##erton
britt
brave
generous
monistat
undiffer
acquity
understate
##ucive
backs
1200
##ibal
periodically
restr
credible
sydney
discusses
scop
justify
facult
cremation
eva
lett
peek
fundings
afg
afgs
emg
confron
phe
50th
headway
mixes
##asonic
carm
carecredit
directpath
conducive
##onsum
319
grace
##play
23rd
premature
24th
followers
launchpad
closeout
intelex
lessening
lessees
##rupt
pipette
robots
demonstrations
changeovers
schl
automatic
905
755
759
751
tenets
##scs
traveled
passives
waterproof
buyouts
classification
restrict
331
weathering
369
558
341
admits
hotter
eddie
devina
devaluation
yourselves
436
439
433
hyla
readings
417
483
minimizes
532
521
appropri
standardization
565
paces
fairness
conferencing
persistently
curves
float
engages
english
762
##irming
642
baton
batavia
calendars
irrs
supplementing
879
935
712
glen
##shot
reinsurer
thermon
050
##beat
795
determin
springfield
speakers
990
centralizing
convertibles
noncomp
nonconsum
ppas
##enney
herd
understandably
reminding
breakout
converts
mcgin
resourceful
expression
procured
coalition
firepower
conductor
gallery
compressor
functioning
renamed
appeared
ticketmaster
deleveraged
reversion
furnished
interacting
verde
exercising
radian
aristocr
##easures
##easured
minimums
professionally
markedly
suggesting
scrub
teleflex
accruent
corners
concentrations
koch
morale
dispatch
onboarded
snapshot
energizing
passengers
debbie
servicers
monetized
millsdale
reshaped
spinnaker
eligibility
inflected
gallo
exemption
asbury
expediting
injected
assemblies
toronto
iceland
##2020
##ulean
marshal
departure
legislature
linger
veterinary
cbf
nitr
persevere
outgrowing
breakthroughs
montana
screenings
popularity
deductibles
injust
mpcs
sticky
potatoes
ascend
seeds
fpd
augmenting
benchmarking
griff
silicones
a321
bowls
worsen
fracturing
encounter
repatriated
akasol
oxiclean
invoice
ortho
traceability
distinguished
aspirational
submarines
denominator
sanitizer
ldcs
autozone
reoccurring
underperformance
academia
boomers
columns
hauling
exemplifies
exemplified
buckhead
crown
reengage
reengaged
rebranding
sneakers
anthem
cameras
reengineered
gardening
hudson
certificate
jeans
herbicides
aoi
caveats
juan
mgic
##oscope
experimentation
pouch
sparkling
counterparty
jcpenney
accreditation
fatig
appriss
helicopters
obsolescence
stoppages
bunny
hanging
forensics
anomaly
hartford
fallout
##electric
depression
countermeasures
subtract
pepperoni
legendary
inverter
stalled
unanimously
governed
kelly
reluctant
admirably
derek
crawford
fumig
sagola
mountaineers
skipperbud
dixie
mbia
nielsen
terrible
daikyo
gilti
wnba
unnecessary
clopay
hidden
oqton
vancouver
vanguard
dewatering
marciano
trilogy
reconsider
remerchand
memphis
undifferentiated
9th
astr
aep
bust
bacter
cmp
cere
cisco
dent
dating
dark
dwell
eli
epc
fpt
fusion
gip
glic
lone
lively
pist
pci
riz
ritch
rivers
rmb
sar
sir
sailing
td
tribut
tying
uv
vs
vivid
vbp
wane
zales
##oe
##ean
##eum
##nass
##noc
##ple
##vy
##ront
##late
##law
##mw
##math
##krs
##gue
##gone
##gma
##born
##za
##790
##ji
##onaut
##eneral
##itis
##ittal
tourn
##rol
##ecca
##entive
##entimes
##sto
##stones
rex
##isy
##terning
quoted
##idas
##idrive
asyn
##utch
##ows
##uson
##ulatory
contamin
ali
iso
shall
shane
shaka
adnoc
adidas
##abi
##abated
##abber
coin
##ighters
##adis
perception
continents
##apes
opted
lemon
##amine
##livan
chest
fob
salem
salaried
##eminent
##ometers
abhi
abrupt
moat
##ister
newco
casa
customize
drier
offt
outlier
adjustable
unabated
worried
spud
sporad
clabber
endured
timken
preeminent
demo
demol
hass
allan
allconnect
serial
indigo
##engling
leveling
refill
genesco
brake
portug
redou
##axx
digest
monter
10x
##eryacht
##arging
##marks
nonpay
beth
backwards
plane
dover
dots
doble
##struct
brandwide
ecov
##undai
furthers
midpoints
pays
empowers
##press
sygma
nobody
scapa
##iciently
combating
cream
attentive
emble
confront
dispose
disallow
av790
corie
gainer
sustainment
18th
50s
509
502
508
aftermath
spends
insign
norwood
carbons
smelter
broadens
lifes
grill
grilling
##world
entert
manufactures
medici
receives
arlington
delph
parnass
knock
knife
lessened
ledger
drum
myair
##alyt
schwart
standby
connectable
entries
postings
dollarg
obregon
enablers
##reciated
456
activating
viral
nathan
proudly
704
idling
waterfront
memo
cleanliness
wram
slowness
excessive
557
552
376
cathe
rebook
rebecca
claimants
latam
captures
ed2
lately
finalization
aeronaut
bottling
bottoming
milk
selections
mobilized
438
hyundai
419
484
539
hearings
administrations
572
crises
517
582
541
immig
##vestor
apj
touches
maximized
megat
597
593
westin
##inski
consultancy
631
installs
installers
installments
661
662
664
618
sensia
sensible
detergent
explor
snfs
snkrs
flour
732
767
766
linking
643
batch
disposables
describes
medications
682
grounds
937
smartbox
pulse
fortitude
clinique
preferreds
746
819
sanj
feeds
##bek
rise2020
trueblue
699
##echanical
petition
colleges
eastgate
superyacht
embar
reminds
imu
imds
methodically
narrative
expressly
suspect
layered
artist
warning
transferring
gulfstream
intellidrive
nameplate
compressors
hook
075
hydrogel
pm1
simplifies
narrowbody
retains
prevail
richer
armor
embedding
##pcr
refunded
refunding
verified
ern
fluctuated
predecess
magnified
towable
olkar
causeway
anchoring
conclusions
gearbox
##tails
recessionary
overheads
linda
carolinas
powell
rotating
concentrating
##evo
dutch
##ologic
burger
belts
rocks
bakery
nurses
museum
iqvia
proportionately
2045
maple
ltd
ltvs
molly
arrives
webinars
csaba
gpv
gpip
recipes
prospera
torrey
neighbors
assignment
snowmob
reforms
unrated
reorganize
taught
advocating
dsi
christine
motivates
harmful
palo
heroic
triggering
lumpiness
3350
independents
jacksonville
downgrade
entitlement
circularity
deadlines
steamboat
safeguarding
withdrawing
withdrawals
visualization
airborne
casting
derisking
endeavors
landfills
concerted
echoing
relaunched
axis
rebalancing
sanitizing
dreams
lucas
alcoa
cardiology
flooding
pept
overseeing
derisked
configurations
thomson
democratic
ashish
caveat
dublin
##chronous
rethinking
thrown
reestablish
troubled
reverted
outfitting
depicts
simulcast
distillate
pollution
subdivision
helicopter
obsolete
linerboard
stoppage
reperforming
provinces
pedro
laddered
prisoner
naic
inkjet
curtiss
subsectors
decelerated
philanthropic
custody
vigorously
endorsement
kiosks
tortue
yuengling
##riorit
coordinating
synchrony
nimbly
proliferation
overshadowed
prompted
arbitrage
unbelievable
reconditioning
parsley
##iannual
elderly
voyages
borg
lounge
##ilibrium
deficit
cheese
applaud
indebted
buoyed
grappling
apla
squeeze
asylbek
brendan
electromechanical
herculean
martinez
sullivan
oftentimes
consortium
socalgas
fatigue
tribute
tournament
asynchronous
ecovadis
av7909
delphi
parnassus
schwartz
dollargeneral
aeronautics
olkaria
bn
bunch
bauer
cz
cant
cio
cng
dy
dear
dign
dbs
euc
ebo
efc
ferg
fier
ftc
fica
fha
gon
gent
gond
hb
hus
hff
hover
ian
iber
ira
ikc
jill
jets
kk
kum
kett
kinet
koni
lining
lps
mant
mss
nbc
ous
py
pem
pav
pink
psc
pga
r1
rif
ross
rero
sv
slop
vip
vah
wedding
xy
zet
##ease
##nax
##aj
##aedics
##pot
##person
##tax
##iant
##vant
##say
##rus
##rinet
##camp
##lab
##lenn
##hield
##hels
##mans
##kt
##fuels
##woven
##gitt
##bro
##bies
##xon
##zor
##700
thumb
##iner
##oning
##aris
##ureth
##urmet
##itarian
##ald
##alon
toy
##ros
andreas
##any
##asp
##icity
##reit
##sted
##sticks
reque
##oms
##isons
##etown
##thor
##mentation
progn
comerica
##irp
##riptions
degr
delic
ald
alm
shorts
adeps
comped
imped
importers
bypass
##adette
permission
##cho
leather
lebron
aco
aces
acum
##amid
##lia
##otives
chaps
chirp
bushels
tragic
##emis
upcyc
upbeat
##onder
pruss
##anson
abating
moab
moist
productively
##iste
casm
casing
decile
decks
deconsolid
plains
usw
lasted
finvestor
console
unrec
unify
unprot
unsett
worthing
sparc
clint
notification
endosc
actives
actuary
pref
prequal
serena
agm
gourmet
terra
teraco
indul
workwear
signage
transco
interoper
solved
segmented
cran
##orders
##ordash
10s
taxing
opportune
nonb
nonrene
nonwoven
regained
planners
accl
executable
envance
dockets
doordash
equals
infill
deserves
ecm
econ
todays
buildout
sco
sciss
scaly
freeport
assert
sequence
extensively
evan
closet
difm
ratch
factset
emeal
##ovis
lazard
retails
materializing
presum
insur
homegen
worldpay
worldpac
anybody
norman
normative
##timber
lifet
enters
patio
setbacks
uncomp
expansionary
mednax
arcel
matthew
competes
talbot
knees
606
septic
encant
relationsst
deferr
residence
scheme
defending
excelled
##ontail
##raf
purple
boardman
802
specifications
##edicine
files
idios
razor
occupy
occupiers
fared
stephen
##yncr
frees
cleaners
cleanroom
##ottlenec
551
transporting
exchanger
##ynamics
##aimed
behr
rebroad
429
##placeable
855
854
meridian
432
greenville
possession
donating
enhancedclean
473
collagen
468
minimized
##efins
53k
##azypyr
administer
administering
526
529
522
respectful
##ashield
ulta
swn
swanson
lockers
516
514
496
493
546
provisioned
628
shooting
practicing
562
meggitt
fasteners
596
starches
639
predicts
predictions
669
668
619
snf
populated
##ahert
644
721
irres
adaptive
roadside
purposely
pulmon
clinically
717
713
glas
##shop
prudence
869
745
##ystems
798
springboard
humble
##borough
titled
separated
separating
viruses
recruiter
contextual
resolute
imus
cyazypyr
methodologies
daugh
mclenn
destock
sufficiently
obser
obsessed
polyureth
cellul
diagnosed
artemis
influential
humanitarian
##ofing
seekers
universally
ethn
ethos
##burst
sunburst
droplet
silhou
waive
enrolling
renal
michelle
reaffirms
farming
granting
verily
arches
cpchem
reactions
floorplan
ageloc
forbearances
magnet
citus
certifications
fabrinet
##loading
submitting
cancelled
athleta
rationalized
tourists
telehand
decarbonizing
unmeasured
camera
pca
epid
bulky
discontinue
rockies
energies
oceans
debottlenec
dragontail
ambass
heatsticks
widia
##lotted
gregg
cornerstones
unexpectedly
enginetics
caustic
csl
lloyds
wearables
remedial
flyease
adrs
extraction
mrt
brooklyn
npa
npv
raytheon
tapping
##aginable
nickel
iluma
tmt
christi
dimensional
drinkers
inquiry
005
cushioning
linearity
naph
racism
chemistries
overdue
nonoperated
a350
lawsuit
polyolefins
wheeling
ballpark
hometown
spokane
benz
castle
wolfcamp
oxford
mercer
biomass
hungry
quadrant
await
kristina
graduates
staggering
locomotives
oxyfuels
ldti
sampling
cosmetic
writedowns
tnf
subcateg
prevalence
tupperware
nrg
recyclability
postponements
cnx
thomas
redefining
belongs
lindsay
extrapol
refocused
reintroduced
fcb
orthopedic
orthopaedics
dictate
sidelines
transmissions
revealed
katie
lumen
bernadette
sulfur
nurture
forensic
anxious
anomal
jessica
r22
stockpile
gavin
chamber
chambers
metaverse
firefighter
catering
reimposed
incubator
irreplaceable
mattresses
sellout
backwardation
fpsos
workstation
collars
phillips
duplicative
gravitate
dhabi
vidashield
refurbishment
telemedicine
a220
hsbc
cohesive
anecdotally
##warner
boutiques
cambria
paddock
earthquake
newbuilds
diodes
gordian
pfsi
aloha
spearhead
indemnity
steakhouse
pendotech
tencent
reusable
reagents
unimaginable
understatement
lettings
appropriations
rizvi
lemonade
offtake
portugal
emblematic
megatr
borgwarner
dignity
ferguson
fierce
kkr
kumovis
reroofing
xyway
requeue
prussia
unprotected
worthington
interoperability
scalyr
emeala
homegenius
idiosyncr
rebroadcast
mclennan
debottlenecking
idiosyncratic
2p
2x
ale
bil
bts
bert
berry
ck
cip
cbr
ccs
cma
cena
dp
duck
drex
ew
eq
ether
ego
ff
finger
gat
gir
gale
hind
hov
hick
hemost
ilot
kin
kart
kend
lynne
mul
mud
mans
mgp
miq
ns
nah
nds
nhl
oer
ocp
pt
pom
pens
pors
pult
polo
pyr
rz
rim
rings
ranged
roman
sip
sik
tt
tast
tension
tiger
uber
vand
vene
vynamic
wir
wda
yap
zal
##ders
##donald
##eve
##pec
##pack
##ias
##iety
##iology
##var
##rax
##rite
##rons
##righted
##coke
##contin
##lan
##uber
##hr
##hire
##hub
##felt
##wash
##watch
##boring
##16
##erich
thread
##inar
##aru
inhibit
ingers
##urc
##urpose
##ati
##atography
##ingly
##itations
##robial
anders
##asa
##asper
weber
##icc
##icrobial
##repid
reor
##ompar
##illac
quo
fork
forres
##verty
##idal
asean
##utility
stelling
stakes
prolog
onwards
##using
##rius
belf
beij
delo
deline
whip
contag
##estop
grooming
alive
alaris
isg
##imated
##imicrobial
compel
complying
impedi
cof
cott
##adal
resign
rescheduled
atrius
suits
ham
overwatch
acid
acam
##louts
##livery
##lized
##acor
chey
chef
##quito
busiest
orsted
trash
triscend
##ormittal
highwood
salty
invigor
capit
##artan
prism
prisons
##sover
earl
remitt
deciding
usher
reput
itasa
netsp
unac
unequ
unquest
unregulated
spider
spino
spicy
booming
claus
intrepid
##iley
notifications
fourfold
##ificant
##urrency
agc
soho
providence
##berry
transf
interf
interven
intercontin
refilling
lik
servant
fever
genetic
finances
redra
generative
monoline
companys
discri
##echo
##ecutter
nonutility
bethan
plano
accidents
experiments
halt
technician
infused
twofold
##rically
programing
caller
llcs
midnight
empty
roz
rovs
scored
scoring
script
achieves
freez
antimicrobial
facet
colin
letting
reallocated
attest
flare
emv
disag
displace
disadv
rises
clip
brothers
retailed
liquidate
insert
insuff
insulating
##lication
carve
carson
carne
carload
##goods
locals
smr
directives
condi
conduit
broadway
daypart
northborough
shortened
lifts
grass
graco
grapple
pottery
maa
baseball
uncon
arsen
##ubman
parity
draxx
##tyl
stocked
##getown
renter
mymc
demonstrable
protest
608
disrupting
deficiency
encourages
904
2003
flexing
807
752
activist
instability
nato
##atherine
tenor
tenet
regulator
70s
hardlines
##itte
moderates
fixing
polish
resourced
resourcing
markups
382
659
658
shipyard
rebased
attribution
macerich
multipurpose
privatization
elast
untreated
virtuous
blades
858
hydrop
488
planted
collision
466
refiners
princeton
538
easiest
omaha
shutting
lockhe
walks
prepares
586
542
standardize
apolog
apoque
566
568
592
electronification
633
612
advertise
semiannual
snee
678
pops
lists
##ahoe
647
727
batiste
777
681
683
684
grounding
718
##shield
reinsurers
867
818
banff
graded
grading
947
943
paperless
sanct
widebody
charlest
trajectories
692
015
##conn
mechanics
828
##enne
selfless
citywide
recyclers
delek
multifocal
img
cytop
cypress
perme
permiss
sharpen
conveni
horace
obsess
seamus
influences
085
terrain
corresponds
##jobs
concentrix
tendering
enjoys
pickups
amazed
carescout
qualifications
procurements
clariti
quantified
richmond
microp
armed
missiles
upsize
searching
ipg
cadillac
adjacency
brightest
probiotics
cpb
ers
radnor
minorities
heartfelt
magnetic
magnesia
towables
citrus
osw
osmon
osaka
osram
animals
remodeled
applegate
escalate
rotor
rotce
sentiments
burlington
refreshes
novos
bluemount
baker
baked
stemmed
cooled
ambulatory
ripp
interrupted
dialed
formalities
garth
sweaters
lpd
georgetown
vigene
voices
nicu
judgments
unevenness
subscribe
subscribed
isolate
prescript
tapes
interval
intervals
redeemable
plentiful
prolong
cullen
welk
redeployment
withdrawn
cbiz
molded
hallow
seemingly
reactivations
lcms
taubman
strictly
hopkins
montage
downsizing
copyrighted
deducted
deducting
ils
fintechs
petrochemicals
ghost
mdu
gmg
subsegment
wattyl
smokeable
clearancejobs
preservative
mtd
pantries
tube
dressing
skews
cryogen
escape
homeland
mentor
cedar
ceding
plateau
bpa
pfizer
bruno
mathem
graduation
alberta
literacy
wool
rebalanced
mosquito
imbalances
luca
commendable
spacs
crossover
exemplify
slips
approximated
woodspring
crimes
anthrax
tcfe
disasters
redefine
scanning
foxconn
hyperscal
aquar
masco
envisioned
distraction
episode
births
gamestop
albemar
fcd
dictated
kirk
lapses
reverting
biologicals
cryptoc
attorneys
examine
waned
unwinding
strikingly
alcoholic
bunge
gtv
anxiety
elasticities
uniforms
outweighed
sanctioning
honey
abandonment
genuinely
smidcap
lubricant
htu
##ripted
chromatography
inspiris
error
neurotechnology
luis
healing
nutrient
##hawk
compatible
p25
tolerance
weapons
recharge
cabinets
smelting
##heimer
turboch
tornado
stipulation
proportional
cyberattack
jagtar
nugen
rudy
pragmatic
nondeductible
burritos
yellowtail
outstri
injustice
fumigation
remerchandising
pistol
contaminated
sporadic
hassalo
embarking
ernest
indebtedness
kettle
kinetrex
vahine
##manship
delicious
acumen
endoscopy
arcelormittal
irrespective
pulmonary
daughter
drexel
hovr
ilottery
porsche
pulte
pyramid
ingersoll
##omparable
forrester
prologis
belfast
deloitte
whiptail
cheyenne
highwoods
netspend
unequiv
spinoff
clauses
intercontinental
redraven
bethany
disadvant
draxxin
mymcdonald
lockheed
apologize
apoquel
charleston
cytopoint
osmonov
bluemountain
albemarle
2nd
3x
7th
aved
aston
ble
breas
bend
bard
berg
bang
bless
bpo
bumble
c1
ces
cus
cens
cels
catherine
dts
dary
dino
ees
eda
epr
eases
erod
fg
fay
fade
fte
fries
fought
gps
gti
h2
hst
hott
hips
hann
ios
iced
iata
icu
jda
ker
kill
kem
kath
kpm
lined
lamp
lte
lha
lenov
mba
nest
nud
nie
ot
pak
pants
pensions
qc
rend
rice
sed
sas
smp
sake
saint
sights
slot
tires
tams
vxt
vick
vending
voc
wmp
wag
wound
wedd
willy
wife
woman
xen
xol
zags
zelle
##oul
##eep
##no
##nn
##nati
##ao
##afore
##tors
##iations
##ventional
##sch
##sberg
##rx
##rade
##raly
##carbon
##cuts
##high
##hale
##yer
##yards
##father
##win
##word
##wlet
##gear
##gow
##gast
##bars
##built
##xual
##ju
##2000
##36
##erick
thro
##onier
##arth
##enas
##enant
##esy
##esth
##esome
inex
##urai
##atron
##ali
togast
##roe
##asable
##asset
##real
##sten
##stine
##omc
##ischen
##thal
exxon
conqu
forcing
##idding
asy
asos
asept
ston
stump
stuck
##igs
proves
##oles
##lee
##riage
##ripts
belo
##ustible
whites
contend
##estation
alban
allotted
isi
shadow
shallow
shirts
mario
marcus
marischen
sealy
seoul
sexual
anesth
##vency
##vended
##abo
coiled
perf
perfor
##chip
resem
reside
waso
##apt
ato
opting
neo
neon
overperform
##arejo
##lood
##amr
williston
chel
cherry
bushing
orte
truss
trick
traged
recontract
##unky
##emor
##emax
pristine
cape
pra
abaco
newport
##inea
plates
plaint
##ustomed
##ancial
drift
repet
itm
##ardon
finover
unse
unutilized
unisys
unsto
unvended
sp2
spade
sphere
spiking
boul
manning
wellhead
clicks
claire
clasp
thirdly
notion
endpoints
acts
timeless
relies
retard
serum
performs
meiom
goder
induce
workouts
soar
ame
amr
amending
interview
seeks
hewlet
greece
totality
braw
bruck
brush
brakes
brunt
redstone
guinea
monaco
crpo
##order
discour
volks
##aval
bug
taxation
underage
volumetric
nonregulated
regency
regime
accustomed
technetics
infin
versant
futur
globalization
eclip
helm
estates
midd
midwestern
emption
noisy
scb
economists
antiv
facial
assuring
propelling
revival
creators
fruits
matern
americraft
attaining
flame
accelerations
eman
disburs
speculation
distress
distracted
risi
##web
lae
cornell
materiality
materialized
liquidating
preserves
##nova
aftertax
mixing
mixers
pointe
transacted
locate
sme
smbs
beck
directing
directions
dayton
distributes
##onscious
centene
graves
potash
##worx
multil
unconscious
associations
aram
winston
maje
integrator
thematic
shouldn
requis
pipes
drastic
footnote
27th
formations
60s
603
vacate
##alyp
enclos
encumbered
specialization
entails
compensated
lime
flexibly
451
diversion
steer
705
706
709
hardworking
idt
idm
analyses
farrell
classrooms
leasehold
membr
cleans
##mann
cyclic
localization
concord
##atorial
wraps
##ronics
police
transported
cathy
packard
coverings
primed
primerica
654
shipbuilding
rebate
mains
amortize
emergencies
latency
captives
eduard
devoted
aerod
bla
853
merfish
444
434
readers
autocare
adoptions
adopters
##pson
greenwich
happiness
donate
collaps
lightly
evaluates
dedicating
462
valuing
refinances
527
trails
trailed
moderna
578
574
wholesal
swim
swiss
expertly
drills
lockup
pathog
588
549
preponder
imminent
actuals
shots
shovel
shopped
567
564
weaken
cardholders
591
##inson
consultative
634
aggregators
ceased
prediction
666
663
611
explored
curate
677
734
769
764
641
724
crossroads
introduces
776
786
878
873
688
shippable
solaris
blockbust
cira
circus
motions
clinician
716
923
merged
841
842
865
741
circuits
banqu
942
sanitary
neutralize
neutralizing
838
securitize
repaired
repairing
awesome
888
instruct
humming
eastman
890
vertafore
noncommer
noncomb
noncomparable
relevancy
915
embodies
##athies
relieved
predictably
##banks
scenes
delegated
pivots
converging
geena
hydraly
boli
massively
constructs
constructively
mcs
layering
vaccinate
humana
surely
conventions
stacks
woodford
hydrocar
hydrocarbon
qualities
stresses
watchful
watchlist
supermarket
penta
delevered
muni
searches
verify
foresight
cpa
licensee
licensees
radius
couponing
lengthy
switchgear
anchors
characterization
damaging
damien
agendas
counteract
counterbal
##linical
pcg
rotate
rotary
contacts
vantacor
architects
retros
hiretech
morris
registry
##ologists
burns
burnett
snapworx
burst
threatening
novartis
enthusiasts
enthusiastically
cookies
bands
cautioned
coolers
investigate
spinning
erica
garrick
aids
fmap
1997
courtesy
gregory
fabricated
disneyland
bolsters
attaching
cca
oversupply
dominate
contemplating
cincin
expedit
capping
demographically
climates
neighboring
preventice
recapturing
nordco
tapered
flyover
nominations
samurai
textured
unpredictability
observability
randall
rayonier
thoren
televisions
lcd
lcm
overseen
repatterning
spanish
angela
lineups
stationary
clustered
discovering
discoveries
sendpro
openslate
christian
mpuc
wondering
nascent
wabtec
stickier
pioneered
neuros
berardi
psych
faa
whitening
bridger
privileges
definitively
theatrically
flagships
miracle
##ymes
##listic
zoa
condensing
attempted
marinemax
overdrive
lawsuits
wrestling
stadiums
reevaluated
ballast
ellen
peso
unifi
renegotiation
mentality
mentoring
orchestration
relaxation
vinyls
lieu
ucb
cooperate
hunting
icd
umh
biofuel
opinions
piercing
journalists
vitamin
sanitization
compliment
teaching
samples
telecommunication
kongsberg
flooded
ctws
overlays
kpsc
##zzle
sweeteners
klein
acknowledgment
crowd
rainfall
desktop
profoundly
barely
anthony
lobbies
mcmill
inevitably
coincide
substation
substations
emotion
dioxane
ebbs
jeep
thompson
democratization
palmarejo
densely
gifts
tysons
perceive
genomic
previewed
savvy
reintroduction
sterling
electrify
sadly
exploit
photo
culminated
##seye
rdof
eclipsing
craftsmanship
egg
nyse
alleg
repowering
elasticity
rcvs
r2g
##absor
rtx
stranded
countermeasure
ncvi
rerent
intermediary
cordless
gibbs
htus
taller
staples
chrome
inspirational
judiciously
fermentation
tbg
chaos
metallurgical
ultrasonic
jacinth
nfts
organs
peterson
disparate
maurice
cruisers
zego
perils
undercarriage
sympathies
frustrating
scrutin
hcpl
rouge
interpret
underestimated
prominently
electrolyzer
merely
pretzel
pneumatic
mounted
rbis
ridership
##runner
cocktails
facultative
phebe
resourcefulness
a321neo
bacteria
insignificant
immigration
exploratory
mantra
svod
zeta
upcycle
unsettled
prequalification
nonrenewal
ratchet
glasgow
cellulose
subcategories
ffom
gatan
hickman
kendall
nahmad
rzr
wirecutter
contagious
cofina
acam2000
insufficient
unconventional
halloween
cryogenic
aveda
breast
barda
celsius
daryl
hottest
kemerton
kpmg
lenovo
vxte
vicki
weddings
xenial
aseptic
beloved
whitespace
albany
perforating
ortega
recontracting
finovera
unstoppable
meiomi
goderich
hewlett
brawley
bruckner
volksw
eclipse
eduardo
pathogens
preponderance
noncommercial
noncombustible
hydralyte
hydrocarbons
cincinnati
5b
ats
bh
bent
bax
bays
bah
cess
css
cures
citi
dap
dorm
dred
dhi
dips
dmr
etern
easter
ehs
f1
frem
father
flock
fsa
fomc
gg
gli
g500
hi
hend
heck
hiking
iho
jav
ks
kl
kon
kam
kier
khan
kmi
lid
lys
mri
mou
maps
mailing
nd
ng
nom
nong
nhc
otc
plo
pond
pave
puck
pba
porter
psa
puma
qpcr
rav
rival
rto
ryd
sorts
sending
sars
till
trom
tuffy
tahoe
uca
usource
vance
vod
vms
vasc
wms
wires
xcel
yen
yod
yach
##oed
##ogn
##dy
##del
##ele
##nis
##post
##tic
##tura
##iow
##sil
##some
##rect
##cio
##craf
##homes
##hys
##million
##mund
##mott
##mble
##matically
##kather
##yant
##yhill
##fd
##wess
##gal
##gil
##gom
##gie
##bag
##10
##300
##ée
##once
##onbur
##arom
##arts
##eneca
inacc
inroads
##urion
##uration
##urface
##atus
##atears
##oric
##alib
tod
##ionably
##roc
##roid
android
##anov
##aser
##ilon
wex
wegm
##entine
reapp
##isse
##etals
##etrack
exasper
quin
queries
quarry
conor
conci
conifer
conforming
##uted
##utarom
stg
stun
stagn
##cture
##mento
prolific
prowess
##ects
##ulse
##ulates
##older
##olulu
withhold
##leot
beam
beau
dekather
contamination
contested
alk
shat
shed
shake
shep
shining
shash
shapes
marvel
marie
marry
seals
ana
anat
stry
strah
straka
cov
##ados
perks
##chitect
resecur
resounding
atria
suisse
haz
haverty
##semble
overlook
leon
leaf
lehigh
leasable
##livered
##acer
enzy
chasing
chik
chunky
chonbur
##quis
##asty
##uning
##united
##emade
##emaking
##emark
upl
upmarket
##enders
##gina
prere
pruning
loas
loosen
moc
newton
casc
pls
customs
investee
##iscover
fines
unav
unins
worn
spas
spax
clec
timet
relay
relays
allies
agl
agnova
god
fulsome
soap
##owned
provident
##bernet
saar
saus
amc
amrock
deliverables
intervent
refrain
heloc
helix
healds
liu
curry
brec
rediscover
slabs
crad
unden
##odied
portfoliow
##avio
##achi
##dermott
annapolis
guideline
underw
underapp
underinvest
##amex
nonstr
ballistic
regal
backst
accent
##loyed
doe
dove
dogs
equilibrium
equatorial
infect
infinity
##ricentials
llc
restrain
restarts
##undo
payne
plex
roth
syring
gaug
threefold
economical
forwarding
propose
sequencing
evac
evans
evanta
fring
fright
frutarom
realtors
differs
pean
ratable
ratably
toptr
accelerant
confusion
##ovac
speculate
distances
avion
lauber
broyhill
phh
annuals
annualize
preserved
presales
homepage
innovators
cared
doubles
counted
sawtimber
transacting
smo
smash
##awa
northshore
##nedy
differing
100th
patrons
storing
storied
maver
eurom
uncontroll
turnout
receivers
arms
##ategic
majors
groupe
##linger
##erger
competed
lessors
##vernmental
showers
risking
drone
draf
drinks
##gets
rented
bankunited
runways
formul
formalized
##bra
##angle
collectible
specializing
specializes
beginnings
infrastruct
##ramento
allocators
902
2001
##recru
couples
806
801
803
activism
recoverability
virgil
specification
stein
steels
steering
airpl
702
applicant
##ella
elevates
classics
comeback
moderator
legs
legally
viewpoint
especial
cleanest
writer
slows
publications
absences
primera
traders
trademark
656
exchangeable
behaving
logic
safegu
attractively
proceeded
##arma
awarding
joints
devoting
virtue
rigcloud
divestment
856
851
852
revolve
casegoods
merrill
unitedhealth
breath
breathe
416
donald
triennial
countrywide
settles
531
##azoo
##azeneca
hearth
studying
tailed
monitored
depository
571
573
impression
##oco
shuttle
durations
498
respondents
581
583
547
prepurch
prepreg
626
621
apz
apex
touchpoints
practically
569
pacstar
##reatment
##eroy
cardenas
maximizes
retirees
598
westlake
westlaw
affording
colorful
semis
semester
seminars
673
budgetary
739
731
733
763
##ahn
649
648
subjects
##filled
crosslab
779
772
773
774
newsom
worthwhile
968
964
686
optional
shippers
027
931
smartly
719
711
714
922
844
cutter
##ylon
theratears
866
976
811
absorptions
banter
949
indexes
translations
charity
penetrating
834
791
697
698
694
migrant
886
centralize
895
821
823
fluence
casualization
##enna
tonight
incorrect
storyline
resolutions
045
images
unsustain
unscheduled
mcdermott
exclusivity
biot
obsession
outdated
recapital
inspires
unemployed
intellis
rightsized
schooling
hob
transparently
woodbridge
optom
earners
suncoke
silos
siloed
hydroelectric
southernmost
bonnet
clarification
##hoff
upticks
michel
paa
##umberger
honolulu
danbury
pumped
ticketing
wallets
philip
hillrom
flavorful
upskill
goldin
goldman
redeveloping
caddo
cpf
reactor
reactive
embraces
towns
nuts
nutritional
nutricentials
certify
decker
celebrity
sleepwear
catalyze
countertop
counterparts
cementing
rotational
contacting
dgg
turbop
ibcs
##evard
##ological
jackpot
grocers
groceries
burial
cooked
##moving
niches
stemco
curtailing
1031
dragon
occasional
hugo
cva
##giant
garment
sandeep
eurozone
kennedy
hrc
jvs
warming
alumar
fabrications
webb
bedrock
gratified
##author
earthmoving
arktura
steepened
korean
csms
injector
recruiters
prescribed
snowfl
preventing
fertilizers
nordics
nominated
nominating
sortation
quarantining
departures
bbdo
textiles
congested
aaum
hallmarks
lodge
disappear
lcp
hopes
montgom
ilker
kilometers
sbus
tactically
injured
washreit
hamper
substitution
pulpwood
authentication
authenticity
moviego
grandfather
psf
attainment
homebuying
mdc
reentered
babies
bundling
vibration
fisher
sacramento
biotechnology
juncture
rhet
tenths
congressional
dressier
wheelch
cryovac
pediatrics
reevaluating
homemade
granularity
tuning
renegotiating
boundary
cooperative
hunter
axle
cimatron
allevi
graduated
graduating
redundancy
combustible
combustibles
dissol
sweepers
rodeo
reallocating
weekdays
rearchitect
downloadable
reoccup
kubernet
lucid
fosters
manpowergroup
bucks
lightweighting
suddenly
crowded
languages
aptar
nrz
postponement
reassessment
jean
lyons
shareowner
refractories
redefined
symptomatic
scanner
feared
sickness
##fineries
reinvention
reintroduce
reconfirming
birthday
distortions
frederick
devastation
reestablishing
paperseal
sji
trouble
angola
transmit
lumo
examining
brilliant
flipped
tinplate
fixture
parasiticides
reemerg
allegiant
divergence
violations
entrepreneurship
kenny
kenneth
lynch
antennas
repurposed
nolan
necessitated
dashboards
mitchell
tcir
ziprecru
intermediates
lobbying
hikes
hikmet
reref
rerefineries
recedes
subsector
philanthropy
pallets
breaches
quadruple
quadrupled
reignite
compatibility
sachs
brisk
brisket
bargaining
trimming
crispy
supervis
cruiser
dorian
lakeside
suta
grasberg
mobilize
dispersed
orchestrate
surrender
yarn
prohibited
remixing
pregnancy
jpy
##ershare
chlorine
ordinances
tenacity
muscle
hygienic
baa2
loosening
mezger
schlumberger
nonconsumable
astrazeneca
demolition
nonpayment
disallowance
flourish
rocksbox
peptide
loungewear
mssps
degrad
aldevron
deconsolidation
unrecogn
prefab
##ahertz
silhouettes
telehandler
epidemic
naphtha
megatrends
girls
mansfield
romania
beijing
capitol
unquestionably
liked
rotorcraft
ripple
prescriptive
hyperscalers
cryptocurrency
honeywell
pultegroup
astonishing
cusp
fgfd
stumpage
neonat
boulevard
maternal
aramco
collapsed
wholesalers
retrospective
volkswagen
baxter
fremont
ggb
glimp
ihoppy
rydershare
ucaas
yodlee
yachts
inaccurate
wegmans
concierge
beaufort
shepher
enzyme
chonburi
uninsured
interventions
healdsburg
portfoliowide
underappreciated
nonstrategic
toptracer
safeguards
snowflake
montgomery
kubernetes
ziprecruiter
unrecognized
2d
2k
5x
aap
auc
axt
awe
bom
bou
bot
bart
boun
bph
bomb
cay
cure
cite
citing
cuk
dl
dir
dess
duct
dud
dxt
dyl
danger
dante
dwayne
duffy
eos
flet
font
fug
fti
g6
gab
gel
gown
gres
gscs
g700
hers
hond
hatch
hta
hsr
hca
jr
jl
jer
jar
jude
kens
kyc
kunk
khale
kalyp
lal
lst
lse
lang
loud
luck
lung
lomb
mage
mund
male
mds
mouth
nid
nail
nag
nsi
nylon
ost
osc
pam
pud
pedic
pfo
pardon
r3
ras
rce
rli
rso
raily
racing
rica
rumble
rbob
si
t3
tis
tilt
uip
udit
vu
vard
vici
wx
wow
zen
zur
zic
zevo
##oated
##occ
##eu
##eur
##nah
##aver
##aved
##t1
##tures
##tler
##iolo
##vision
##sions
##rc
##rap
##rally
##rane
##ritis
##cz
##cut
##cci
##corn
##lings
##hear
##hith
##hase
##hane
##hana
##hadow
##mut
##mate
##mun
##mem
##kit
##kel
##wall
##gus
##burn
##bour
##block
##bucks
##betta
##zymes
##erated
##erio
##inine
##onuc
##onix
##arse
infer
inks
##atin
##atable
##itud
##itiv
##itous
##itator
tok
topping
andre
anderson
##anini
weights
##entech
##icon
##icial
##stay
##omi
##omfort
##etch
##thest
query
conoc
concho
fors
forex
forfe
##verify
##idder
asm
ascent
asurion
assemble
stard
yearend
##atemal
##users
##usher
##ulator
##olar
##olutions
bezer
##uster
deer
deemphas
contest
##ppe
##pphire
##estment
##estry
ally
alli
aldo
aldi
shower
shoring
shores
sherry
shady
seemed
seafar
ank
anad
anaha
anonymous
ado
adept
##ando
strains
compiled
##abits
impose
implication
cozy
##chi
atbs
haemon
overla
leo
acron
##amer
##ametal
##amazoo
##liquid
##acart
enzymes
chedd
busier
bushel
##ifiers
trg
tres
trent
trued
foil
footh
recomp
recalib
##ela
##elis
##elong
##elman
##union
##unton
uphe
##omex
prize
invited
invitation
invacare
##llan
##ivable
abb
firstbank
##lowe
casey
drivel
costco
repos
reprod
repriorit
secondarily
##grid
itiner
2020s
unin
unifying
unann
spg
spacing
spartan
boys
bofs
manip
maneu
##ilevel
endors
retreat
preven
prefect
demurr
meij
agam
agitator
##enson
##ensation
induction
workover
##berge
savan
sapphire
ameco
intergo
intercept
interplay
##ophill
##talk
brain
brita
slc
slice
gucci
guatemal
##ateral
##cussions
monu
crank
crave
crusher
valmont
valentine
valerio
volte
##avision
acquinvestor
annuit
buzz
taxed
underbank
undergone
##keley
excites
nonp
nonex
nonmark
nonbank
reflections
ballot
regurg
dire
planes
halves
##ultz
##strust
infring
infected
depict
1500
eca
estée
##leted
##ractive
empathy
scba
scripts
forwards
freezers
assays
creditors
##herwal
revive
commercializing
evestment
frig
accelerators
##amping
emman
inventions
dism
avalon
##issory
dividing
corrosion
phthal
sustainalyt
platts
##icked
safeco
homegrow
innovated
##oney
carb
pointnext
##cience
##ciences
assetshield
locating
mettler
smds
solidifies
##awal
condos
condoms
desper
dayparts
lifelong
centrally
bookrunner
jojo
##aleh
##iums
patti
stork
eur1
euros
uncoated
medal
ara
arity
arts
flee
winters
winches
competence
knox
showroom
risked
robin
governors
drains
presses
fivefold
recognitions
affirms
26th
##logists
##brush
varieties
609
smalla
schne
schultz
defensively
flatter
entrant
entrust
handily
posts
critters
obstr
profarma
automates
purifying
805
758
75th
instal
instilled
instacart
foundries
tenfold
##scopy
harden
filers
ids
substantive
raul
ragh
##ittee
occupies
watergate
agreeing
cloudfort
foregoing
biller
commonplace
##lusion
##tek
viewability
jane
barron
barcel
holdback
promissory
wrang
markup
651
653
beharel
hotline
amortizing
macao
multiplier
multiphase
edit
navigator
bigion
socializing
devin
devote
bottlers
remarket
proposing
##ervices
carbonate
sync
synonymous
431
americanasset
greener
greenberg
staffs
evidencing
identifies
486
authorize
refinish
refinitiv
eventful
windstream
windshield
##azaleh
576
579
swell
swung
crisps
durham
wales
499
##ucker
584
544
627
623
561
chooses
millmax
megamex
megahertz
physics
starbucks
austrian
electronically
visionary
instituting
cev
harvey
##lowski
616
deterrent
commissioners
fielding
679
popcorn
listened
738
subsurface
statistic
pacifico
linkage
disposing
778
788
965
961
939
outpaces
carryback
clinisys
926
situational
849
983
984
863
974
744
814
amphith
##heet
##genix
948
836
831
035
comprehensively
796
792
696
691
determinations
884
instructive
bioc
bioad
822
semicon
917
911
912
drawdowns
embodied
##ommittee
msps
breakup
derecho
deridder
undersea
involunt
sportswear
imr
imag
reconcile
converge
geologic
unsolic
##frames
2033
bolder
massmut
##ercock
biased
polysil
scales
hybrids
toolkit
establishments
warren
conductivity
gerber
freshest
freshness
grids
teletrack
stacking
hoa
terminating
##afety
suspensions
bobbi
cannibal
factorytalk
watches
supercom
honoring
checked
pumper
pentair
munitions
agrawal
microw
armitage
hollow
holder
ebitdare
validus
upsilon
glasses
interactivity
redeveloped
verd
foreshadow
rulemaking
##arko
fluctuating
fluctuates
urbanization
prede
booster
nutr
pantheon
##dpe
microchip
vitally
celebrities
damon
##apples
correne
labeled
countercyc
cemented
camiolo
informational
retrocess
retrogenix
tissues
pmtt1
suburb
burwick
discontinuing
discontinuation
msrp
belly
novonix
energize
dependency
cloth
queens
widest
proportionate
sandercock
simplifications
fmd
1990
pronounce
judicial
syndicates
rmi
recipient
affirmation
snowstorm
mccann
databases
boyd
nominally
quarantined
legislators
rebuilds
revolutionize
biologic
bellw
vigilance
friendship
pvod
familiarity
halls
npd
disappoint
artificially
reactivating
pleasantly
analyzes
taunton
libertyx
apparently
deductibility
hemosphere
ilan
ilim
illiquid
sbu
hampering
illnesses
neurom
grande
berkeley
tolls
ghazaleh
gmv
scotland
saltwater
postponing
occasionally
tipping
tiju
civic
vibr
watkins
stretching
##monte
1729
augmentation
disinfectant
sealants
republican
naples
tentp
tuboscope
trojan
quietly
capsules
prospecting
defaulted
##ippe
equipping
dampening
fragile
attacking
cohorting
preceded
festive
smoker
appreciating
overwhelmed
survival
cigarettes
flawlessly
hunker
icahn
ionization
pcs2
brownfield
feminine
umwa
peaceful
hyperzone
graduate
redundancies
instantly
reenerg
appraisals
thrives
cosmetics
pineapples
zbedge
leakage
downloading
encompassing
kaybob
replicating
fluoro
overlaps
suitability
sacrifice
approximates
##ceptable
crafted
delighting
totall
reengaging
subcommittee
manifested
##peak
##theweb
sunsetting
belgian
coincident
coincided
antibodies
ebb
datasets
sabherwal
dubai
gummies
hindering
juul
masking
constitutes
albd
volunteered
distorted
avocados
stubborn
photos
entravision
distinguishes
kirby
championships
rarely
telephon
epicenter
bernston
sulfates
apprent
arguments
crossties
nurturing
rubber
repercussions
flagged
hardwoods
toothbrush
kennametal
rcv
rcm
xiaomi
indefinitely
incentivize
necessitate
gunby
repossession
bulletin
##mobil
compassionate
staple
recede
unanimous
governing
##renew
depreciated
nutrients
birdseye
workstations
phillippe
calibration
reconfiguring
banco
p2p
uae
weapon
recharging
correlate
reinvigorating
ruggedized
inhaled
riserless
scrutiny
subcontractors
dinner
fresca
kalamazoo
mimi
##aviol
cuis
niw
yoga
retrench
firearms
faucet
i2verify
mesh
oligonuc
suppression
restrained
scopes
confronted
determinant
noncompensation
aristocrat
scrubbers
nitrile
griffon
cereals
serialization
catheter
sanjiv
predecessors
czech
gonz
rifles
acclaimed
scissors
lifetimes
uncompleted
deferrable
freesheet
observers
magnetrol
extrapolate
anomalies
ccsg
hindsight
mullen
pomona
tasting
unacceptable
interfaces
discrimination
carsontheweb
carnegie
elastomer
hydropower
aquarion
inexp
exxonmobil
perfum
repetitive
emanating
disbursed
majeure
banquet
hummingbird
expeditiously
allegations
gibbscam
atsi
cessation
klutch
konect
kieran
lysol
trombetta
vascade
##delmonte
exasperated
shashank
marrying
stryker
overlooked
prerequis
sausage
cradl
underinvestment
syringes
peanut
avionics
smoother
maverick
infrastructures
unitedhealthcare
prepurchase
turboprop
moviegoers
rhetoric
degradation
glimpse
shepherd
axtone
bombard
dxtra
dylan
fletcher
fontanini
fugitive
gresb
kensington
kunkel
khaleesi
kalypso
lseg
magellan
nidda
varde
zurich
zicam
##ranean
##members
conocophill
stardust
bezerra
seafarers
anadarko
haemonetics
acronym
cheddar
foothold
upheaval
unannounced
demurrage
meijer
savannah
intergovernmental
guatemala
underbanked
regurgitation
emmanuel
phthalic
sustainalytics
homegrown
schneider
cloudforte
barcelona
beharelle
americanassetstrust
amphithe
unsolicited
massmutual
polysilicon
countercyclical
tijuana
oligonucleot
conocophillips
1x
3g
5s
aat
ais
arom
aav
aeo
aired
aha
bf
bos
bif
bind
cpp
cort
cel
cakes
cfr
caf
cto
cuff
dt
ding
dct
dab
dad
dsc
dane
ditch
ect
eats
egs
fd
fu
fus
fitt
fcs
fhs
gw
gill
gut
gating
ggr
gep
gems
hse
hoc
hung
hipp
hull
hdpe
icc
ienov
iurc
jung
kow
kop
kaz
kaut
khand
lyle
lady
leroy
mst
mct
morm
miz
mend
mower
milt
mesa
mbp
nxt
ngi
node
nhs
nurse
naft
oa
oas
oven
owe
oee
ovia
pear
penc
pix
pfe
ponce
qin
r4
rust
rio
rains
sx
sig
sage
sene
siting
srec
ssi
sears
sister
tx
tq
tct
tuc
tian
tape
tug
tcl
tpa
t16
tidal
ue
ubi
ugg
uaru
vc
vont
vlt
verve
vocal
wim
witch
wica
wanes
wsi
wilton
yan
zh
zatar
zigs
zelman
##oil
##olyn
##dro
##dened
##elo
##eak
##nold
##nitzer
##notes
##aa
##aic
##ault
##aued
##pf
##paces
##polic
##tw
##tons
##tada
##trust
##iver
##iotic
##vine
##rina
##riding
##cross
##casts
##cette
##certs
##link
##lzan
##uan
##uite
##hn
##hst
##hout
##hyc
##men
##mud
##fax
##worm
##gings
##blood
##xius
##xiom
##zab
##ern
##erhal
thir
thorn
##inisc
##arine
##enheimer
##esee
inade
inov
insour
inapp
inactive
##urther
##urably
##aton
##atial
##atech
##atia
##eding
##edith
##orestation
##ingway
##itr
##iton
##itious
##alia
##alco
toured
tocz
##roft
##rocket
##rotech
andres
andrade
##anu
##anz
##anus
##ango
##anex
##assemb
##ilst
wechat
##ecue
##eciv
##enty
##icter
##rek
##station
##stood
##static
rey
reyn
reaping
##omic
##ombe
##iso
##isput
##lysis
##terie
##termin
##illo
##etus
##etti
exogen
quit
quot
quip
quanex
##earing
conve
foray
##utri
stro
stones
##ctic
propp
onstream
ontada
comvest
##usions
inclement
##olab
##olences
##irc
##irer
withstood
##leen
expo
expose
bev
beers
dean
deist
whaler
whilst
##ortex
##imen
##imetals
martech
martha
sew
seizing
anhydr
adem
straw
stricter
compl
complic
##reason
##osa
##osense
implicit
impetus
cogen
coeur
byron
##ads
##adero
##tss
perish
reske
##ouch
atimetals
##itionary
##actor
neal
suns
##segment
overre
overst
overde
overriding
acme
acxiom
##loon
##acic
##oto
##umin
##umene
chub
buses
busbars
##antis
trs
trir
trump
triton
recert
reclos
salen
salsa
##eling
##ello
##elage
##elastic
##elwal
##emma
upload
stronghold
appleton
##arted
loves
abc
moats
reminisc
##istors
plasm
plumm
##ffman
invests
usf
approves
repaint
outliers
secondaries
itrenew
finite
finals
finland
consens
##akon
##akhst
##oku
comparably
unw
unsh
unload
unabsor
unreason
spd
spod
spyder
bof
bogus
manned
##encer
notar
endot
endemic
actor
timanus
reline
prebook
hassf
##urrent
##urrences
##ailable
tepid
fulton
worksh
workstream
soul
socr
socio
signatory
##iea
leveled
demanded
amol
ammun
interference
intertw
intersegment
##oping
hemp
fep
genome
genius
brac
guang
monroe
##acey
cricket
beneath
button
##iceship
##odial
longtail
acquirer
anne
bubble
##orsky
underbuilt
oppenheimer
##uca
nonre
nonqual
nonjan
nonusers
nonmembers
balloon
lookout
canal
cannel
keg
executes
envi
hallie
halting
technet
##strand
##ainted
infuse
##ricks
desert
restabil
expensing
furthest
furthered
##letown
midweek
payload
payara
000th
emptive
credential
roy
rois
rogue
healthiest
modulation
symb
advent
scene
scripted
##ouses
2100
##hero
##heric
##heresis
sequester
wherewith
2500
collusion
colombe
commercials
evapor
fraser
closets
peg
atten
energys
emob
invented
conflu
disse
##ovia
specify
avatar
momentous
##wei
broward
corps
coreciv
php
phosp
annualization
doucette
safari
shark
##lica
carshop
carolyn
detain
worldline
availabilities
##cient
metab
##anked
smucker
electrop
developmental
normality
openly
openlane
directs
condomin
condolences
digitized
grinding
grills
booker
joel
joys
patri
patrik
setback
40th
premiere
uncrust
uncomfort
mediter
medcerts
arx
arises
arvada
argue
arnold
arctic
occurrences
##fty
winchester
deltek
measurably
##inker
rollt
rolfs
##airie
##umping
lesson
lessens
existence
renews
dril
trackers
ifas
myhealth
formulation
602
604
premiumize
clearwater
clearsight
auberge
schah
schnitzer
rightpoint
defens
collectibility
lifeblood
excelling
handed
##raig
estimation
##ospheric
reiniti
placeholder
coupling
809
callouts
756
753
instill
squared
specificity
diversifies
similarities
708
703
applicability
##ropriate
hardened
networked
raf
waterways
fara
farther
classify
memories
softest
forego
leggings
frey
visions
visibly
barc
barras
barometer
tempe
tempel
##ronts
##ronutri
nava
navde
marker
packers
657
simplest
chargers
mainstay
claimed
##roduct
replan
latitude
feder
elsa
ventura
edges
poa
evolut
aeromex
bloss
blunt
maturation
skate
meredith
unfair
reads
autobag
macros
donna
participates
authorizing
lightest
triangle
brie
dedicate
southwestern
955
958
953
hisense
principals
offsite
respecting
penney
swan
swapped
swept
##ocally
tightest
##coal
walton
589
immedi
629
apheresis
shook
packet
livelihood
fairbanks
fairfax
starr
stimulate
ceasing
harp
614
descriptions
explaining
curb
readying
fielded
snp
individualized
arranged
761
technicals
static
favored
729
irx
irvine
rollovers
illumin
roadsh
876
871
966
689
932
938
gla
927
929
921
924
##shell
847
985
977
973
749
742
812
813
circa
circul
946
auditor
charcu
satcom
educator
##rificed
chairlift
037
695
migreen
redelivery
spotify
subsiding
subsidized
humor
humane
dramamine
997
991
994
eastgroup
centralization
mechanically
mandating
mandino
897
891
892
829
strips
strikes
somerhal
914
drawer
flux
embarc
herbal
citypoint
atmospheric
recycler
urged
derrek
undersupply
methodical
unsur
##frac
2039
sectionals
repeal
mcn
hawk
expressions
polyols
truckers
workspaces
pretreatment
pushes
terrence
blackhaw
treasures
numerator
freshwater
freshdelmonte
surgeon
galleria
telxius
hoch
hoffman
tendered
silent
pmis
waited
waiving
waiea
intelligently
clarified
bridgeport
stressful
quantifying
renre
renowned
watchman
093
spectrom
micra
micronutri
weaknesses
refundings
upsizing
circumstance
definite
vera
verado
exported
archive
##icultural
radically
radiation
nexlyn
lengthen
towels
lacked
lacking
enjoyable
panic
sleek
accommodating
##dpay
microelect
microscopy
refrigerators
osa
suggestions
celebrates
aspentech
##wait
pictures
pictured
predominant
scientist
counterfe
linn
liners
nonrecurrence
##liner
epri
enacting
interconnects
interconnections
architectures
insureds
laplay
absorbent
childhood
coldest
amazingly
burned
catches
youngest
luxx
belvac
trainings
trainees
trev
bakkt
elementary
venom
sightglass
debate
soundly
thrilling
ambient
trillions
filtrete
queuing
quartz
spinal
widow
dunk
dunkin
padraig
rehiring
formalize
##guide
aidvant
1994
bayer
teammate
deteriorating
sorb
bedroom
fanatics
earthworks
doubtful
expeditionary
tasked
recipients
wearer
preventive
sheltered
nordic
tapestry
boydpay
flynn
prospectively
cinematic
bbd
mrfs
vmworld
##leness
malvern
reorganizing
forests
pleasant
jayhawk
tapped
advocated
boldly
dialogues
cohen
vacationing
redesigns
dsg
hemingway
pairs
pairing
tmr
replenishments
hypoth
mpsc
substitutions
kramer
resistor
motivation
motivating
cushions
gbus
palmas
berlin
bermud
biosolutions
rigorously
croatia
enormously
disconnected
ascension
scotch
retrofits
retrofitting
pausing
##bledon
undergrounding
##ymac
bundles
civco
1984
accumulating
preservatives
obstacle
euv
madera
sacrificed
correctly
blends
blenders
tentative
attempting
councils
pennymac
panties
reassuring
forums
cultivation
quietest
mcdon
broadcasting
flattened
rsu
rsas
duplicated
ignitions
welders
assurances
tennis
articles
articulate
homeless
precedent
unforesee
buffalo
darren
chews
colonias
smoking
encountering
swinging
appreciates
ukrainian
##itania
relaxing
configured
akorn
plateaued
biomark
prototyping
cylinder
kristin
chilean
invoicing
intimid
mirrors
mirrored
alleviation
recept
bipolar
laneway
##ozz
preston
bathrooms
compromised
sanitizers
teacher
skyline
skyrocket
disclaimers
cosmop
leaks
downloaded
powersports
powersuite
birns
kuwait
##lamation
##annon
fostered
understated
floods
aj1
peps
tensar
emails
api2
olympic
olympus
slipp
buckhout
nuance
leasebacks
hortons
barbecue
endeavored
##ydlowski
reestim
shells
gardner
lsl
wuhan
coinciding
fireside
lauderdale
electrostatic
cno
cnk
dotted
thunderhead
democrats
palmer
sabr
sabal
sabine
##hotels
ashley
explanations
explanatory
##oscop
answering
episodes
gamers
lori
constituted
albds
repurpose
flexrigs
780g
workdays
railroads
orthopedics
battles
dictates
lapsed
angle
unitholder
fungicides
dissipated
reacceleration
katrina
ramifications
transplantation
distiller
dynasty
podium
podcast
dishes
gtf
ruby
confidentiality
chipotlane
reedhyc
provincial
sanctioned
constituencies
ftes
abandonments
incentivized
harnessing
firefighters
fsps
fht
lewiston
enriching
upsells
positronic
nonsafety
pepperidge
autoslide
cordis
inverters
declarations
reluctance
nonprofits
ecuador
systematica
endorsements
jenkins
kbra
kiosk
reigniting
rejection
revitalized
revitalizing
reinstituted
calibrate
possesses
ultraviol
randomized
bargain
vrf
mauritania
trimmed
supervision
telemundo
reinvigorate
doron
larsen
##busters
braised
subcontractor
fresno
mimo
inequality
prominence
elmira
ssn
yogurt
promptly
coasters
reskilling
upholding
redirected
dietrich
autopath
mcgarry
destroyed
faucets
precipitously
nanometer
nikola
oligo
rabbit
rabbi
remediating
scoping
confronting
carmel
determinants
mcginness
aristocrats
nitride
elizab
riverside
tdg
redoubling
monterrey
entertaining
entertained
gearboxes
snowmobile
snowmobiles
bnpl
dyke
gondolas
hbtss
hovering
pavil
slope
##brook
prognos
moisture
encanto
polyurethane
ambassador
spearheaded
bilateral
kartrite
muds
penske
sikorsky
venez
zalman
reorient
delineation
compelled
cottage
resignation
invigorate
reputational
planogr
displacement
carloads
condiments
arsenal
sanctuary
micropro
mathematically
unequivocally
disadvantaged
censis
hannibal
kathleen
nesting
vocational
anesthesia
##aptives
overperformance
praise
retardant
inducement
futurist
middletown
beckman
cleansing
concordia
blockbuster
counterbalance
complimentary
mcmillan
scrutinize
bahrain
eternals
javier
lidar
##anova
wexford
stunning
withholding
dekatherms
anatom
timetable
undeniable
underwrote
infectious
evacuation
formulas
airplanes
hobby
cayman
directive
jlg
lombardi
mundy
oscill
railyard
##itudes
forsake
ankle
adobe
overlapping
recompete
driveline
spartanburg
maneuver
endorsed
prevenio
interceptor
monumental
knoxville
entrusted
obstructive
rauland
bigionaire
bioadaptives
involuntary
imagery
microwave
bellwether
neuromod
vibrancy
apprenticeship
cuisine
gonzales
mullenlowe
inexpensive
prerequisites
bombardier
corte
dingo
ectosense
fuselage
fittings
ienova
jungle
kowlzan
kazakhst
kautex
khandelwal
mormont
pfeifer
qinzhou
senegal
tucson
ubiqu
vontier
wimbledon
zatarain
##policy
inadequ
inappropriate
toczydlowski
anhydride
ademir
chubb
reminiscent
unabsorbed
spodumene
boguski
hassfurther
workshops
workstreams
intertwined
nonjanitorial
cannella
wherewithal
emobility
confluence
corecivic
uncrustables
mediterranean
rolltain
myhealthpolicy
schahfer
navdeep
aeromexico
immediacy
charcuterie
migreenpower
somerhalder
embarcadero
herbalife
blackhawks
nexlynk
microelectronics
laplaya
aidvantage
bermuda
unforeseeable
reedhycalog
ultraviolet
elizabeth
kazakhstan
4hana
awr
bv
bk
bore
benn
bsa
bki
bmw
cx
cq
cured
cables
cios
cpc
csr
cups
celler
df
d6
dj
dos
daim
dask
dpu
dla
dva
dmas
eia
eeo
fel
favors
fishing
fetal
fasb
gd
g2
gec
gly
gust
gem
gcc
gian
gerald
hq
hos
hive
ive
ige
ift
iea
jc
jk
jw
jal
jab
jad
jart
ki
kj
k2
kur
kad
kot
kud
kroll
kraft
kmart
kasb
kvo
lul
lak
lice
lame
lms
lug
lme
lesco
luk
mv
m3
mack
mates
mery
mason
mra
mism
mbi
mdr
nj
nect
nust
nos
nio
niss
nancy
ncl
nano
ott
por
pts
plot
pzen
peck
qing
qid
rw
r5
r7
r6
rj
rit
rect
rhe
ryst
rsa
render
rpa
rscs
sver
sween
sfc
svp
tp
tina
tbe
tpo
tacon
tbtu
tainted
ui
uaw
vat
vial
vel
venn
verge
vista
votes
vreal
wich
wod
wah
wars
xevo
yin
##oard
##dam
##direct
##dik
##diet
##eving
##egment
##aven
##agy
##awei
##pable
##pex
##tx
##train
##tford
##tros
##vas
##vic
##vol
##vably
##vian
##sales
##race
##ramp
##coin
##cock
##crum
##lle
##lass
##luca
##uhoff
##hed
##hor
##hit
##hak
##hop
##hai
##mers
##mates
##mask
##mats
##maker
##kart
##kish
##killed
##kiff
##yton
##fil
##flo
##fied
##fell
##fkt
##fronts
##wc
##witt
##wered
##gc
##grew
##bu
##bing
##bos
##brom
##bden
##xil
##xide
##qvar
##zley
##70
##95
##12
##80
##erity
##erous
##erline
thad
thick
##insey
##inancial
##onven
##onere
##onite
##onna
##arks
theo
##enh
##eneck
##enburg
##esales
inh
inve
inoc
ingest
inger
injunction
##urals
##atur
##atform
##eda
##edy
##edges
##ndraft
##ndrive
##orb
##orage
##oria
##orrelated
##itas
##itech
##itters
##alges
tol
##rout
##ani
##anian
##analyt
##asis
##ilization
wec
##ecare
##icz
##icted
##rez
##step
##storage
revel
rewind
reef
reauthor
##omers
##isp
##vek
##lybden
##illable
##illante
##thouses
exert
examination
quie
quake
forging
##idences
quarterback
asms
##uto
##utable
starters
sticks
yearly
prohear
oneneck
inclined
inconven
incidences
##ulemon
withstanding
##lead
##lemen
##uelo
##uela
##rieve
bees
beech
beaver
contour
contra
contango
##ppes
##estrian
alion
isp
ish
ischemic
##geoning
shin
shined
shang
shakes
shannon
marlo
mardi
seized
seabor
ani
anz
analges
##ande
strad
strata
comple
compost
computation
complac
##abled
##osity
##osote
impending
coals
coarse
##adors
##adia
##chak
resegment
washes
##apy
##aporation
atac
opuc
##itioners
neph
neovia
neuhoff
suv
suitable
suzan
haack
hake
overage
overach
lego
##lox
##ami
##liable
enfor
cher
chop
chances
chunk
##quila
##ifi
##ifast
trac
trays
##iop
##elined
##ungun
upc
upheld
marketwide
salesperson
inviting
invict
##allion
prune
prairie
loch
looming
lofty
secures
##answered
abates
abiding
aboard
mobs
mohit
molybden
##istent
##isters
##istak
##istry
casket
plag
pledges
customizable
##ancers
uss
usages
adder
repro
repack
repop
repell
outward
outgrew
commute
commutation
itom
itters
##sson
unatt
unanswered
worries
spx
sparks
boes
bould
boaters
booth
supposed
clutch
loweth
intrast
endurance
retreated
retool
retenant
poses
preplan
demos
demise
##acker
nowhere
##ighting
##ailed
aga
agro
goat
terti
indoors
##agency
fulcrum
##berly
##urned
amd
amber
amway
amino
transistors
##opec
seepex
ratemaking
lique
grey
solvency
##ertension
vegan
veev
##aryn
brune
bryant
portability
redness
sliced
guil
guac
guadal
##aterials
monomer
flowform
crd
criss
crunch
craz
valmy
discern
undisput
butane
##odi
somebody
##avian
annette
##arged
undergo
underwater
excise
exclamation
nonper
nonproduct
nonalco
diems
dibrom
canary
backyard
organizing
doc
doxil
equips
twa
twists
twenty
infancy
##indust
depriorit
deptford
##rics
grosses
subch
subassemb
rests
restor
restate
esterline
##letters
midkiff
##irement
importation
##prising
rober
roaring
healthworks
healthpeak
noel
nobles
scout
##ouse
freezer
digitalize
assay
assault
propensity
creditor
crediting
creditfor
sequent
##assium
coleman
creosote
1400
evaporation
##holdings
realpage
peo
pebble
peyton
shea
flra
flush
flaming
emitting
disabilities
dislocated
disabled
distanced
##issa
brows
dilemma
liquidations
sintros
sinopec
afterlife
aftersales
headlined
headphones
insol
insure
insulate
inspected
utis
norco
norris
norwitt
##ledged
takeouts
carlt
carnage
detected
internship
anymore
sma
smes
smiles
##aways
electrod
openpath
powerline
powerstack
traits
centre
grs
grac
grape
grakon
bookkeeping
joost
jochen
storefronts
potassium
patch
mait
euroc
premised
premerger
multid
multilevel
multicultural
uncorrelated
optimum
optimally
optimizer
medtech
medifast
arff
winery
delve
delving
parr
paraly
integrators
talc
##aires
knit
knits
knapp
caregi
##gnition
##vernay
showrooms
pipettes
roblox
dray
consolidator
pressed
affera
banknote
myt
myrap
##eoarth
##logic
runoffs
wayne
robustly
vacated
##elyx
encaps
relationsing
smallpo
residing
residue
deployable
schul
schotten
deflect
deficiencies
simm
simont
collector
collectors
flatiron
handles
handcraf
postret
compensating
summed
summing
proficient
##ravel
deposited
908
flexed
804
757
754
activists
founders
naturals
regulate
airway
airways
airterra
sixty
707
filtering
idr
idrs
##itton
occupants
##graph
waterway
softex
foregone
legit
localizing
transitionary
##teen
courthouses
technologists
geoff
##ottica
unites
##careers
economywide
polit
pluses
##itigated
cato
markit
octavio
shipboard
rebidding
##roductive
macys
multiproduct
federation
fedramp
els
captiv
ventrac
edr
editor
edmund
mitigations
socialize
##elsch
##asters
##boats
blues
blank
blurring
blaz
milo
859
skid
merge
##yssey
reader
readout
adopts
greenest
exposing
augments
triad
triage
southland
refiner
957
956
transforms
prosecut
proserv
studied
objects
523
tailoring
respectfully
hospitalized
penne
modernizations
shuttered
shuttering
##markets
bondholders
bites
preferably
pathology
streamlines
responds
shoppes
practitioners
researching
researchers
chopped
millwork
##houses
megabit
fastmarkets
fairwind
fairway
aggressiveness
594
stimulated
austerity
necessities
636
cements
cews
internalization
curfe
winterfell
676
671
subsystems
statistically
statistical
##nsville
uncharted
labo
labx
labozz
781
newswire
newsletters
877
969
963
purposefully
shipper
934
smartstrand
blocking
fortifying
glut
merging
##she
##shift
##shares
848
843
prudency
thermost
868
970
979
057
absorbs
amphib
administratively
grady
944
feeder
charlie
charcoal
finishes
precurs
precris
awm
794
miguel
merchandis
887
889
instron
016
013
humility
humidity
993
latinx
lagg
biost
bioanalyt
896
899
894
##borg
striph
striker
nonclinical
controllers
wellsite
loadings
moneyguide
embody
embolic
hern
legalization
storylines
rollbacks
incorporation
urging
msw
breakage
dereco
fitters
hydration
2032
massage
##lux
superiority
dauch
hawc
destined
nark
suffoc
biore
suspected
layup
layouts
tiered
vendition
pretium
diagnoses
turkish
warp
warby
vaccinating
adaptation
jimmy
pushback
illustrative
canceling
ethisphere
gallatin
lasts
teller
telesales
compressing
woody
woodworking
sunny
bidders
##afone
hydroxide
surpasses
##ikset
##ikang
unlocks
##uxite
forgave
clara
clarion
bobby
quantifiable
guidepost
westernunion
uptown
narrower
wildlight
checkpoints
minuses
dania
prevents
attendee
agronom
sponsoring
holland
hollinger
rvs
refundable
glasscock
fifteen
1901
verifications
containerized
archives
golfers
municipality
coping
radi
lawry
agemo
unreliable
1054
lengthened
towel
citation
nutshell
pulls
sleeve
litigated
resett
datax
datatech
fabs
animation
##iversity
eyed
gearing
scram
catalyzed
labeling
ineffective
unmistak
unmitigated
informing
informatics
epit
dgs
turbot
##lipower
splitting
avoids
himself
learners
gigi
recommending
trialing
koelsch
morse
societies
pmtas
decidedly
##eteam
enthused
burt
burgeoning
surrounded
masters
renovate
renovating
threatened
amidst
b2h
trainer
##operative
dependencies
puget
puzzle
sounds
rias
cruising
reshoring
queen
huppe
huawei
##kenridge
##comfort
rehire
rehires
warranties
ericsson
garages
2041
francis
arenas
sandra
sandstone
headquarter
congratulating
1999
1998
1990s
bayfront
void
cerr
flipkart
whitewater
inherited
playbooks
sorrent
webinar
ccar
ccrc
earthlight
dominating
dominates
##peton
funnels
caelyx
syndications
csm
sprite
grapes
prescriptions
prosperous
remedy
committees
ironically
hurst
recommends
sorting
extracting
troughs
karla
##erbilt
abundantly
textur
guessing
ceramics
dickinson
tdsic
televised
787s
shrunk
1676
championing
oncall
authentically
hemacare
kiln
kilns
melon
melissa
##value
hypertension
##meier
altra
krish
kimble
kimberly
chapters
fruitful
motivate
commanding
commanders
corpay
palpable
pioneering
inauguration
racking
intellipower
autonomously
whitney
shocked
bridging
swaptions
crocs
mdl
disconnects
disconnecting
##uterine
ascending
seeded
seeding
adhered
007
sponsorships
santi
subsegments
1980s
cracker
1931
downdraft
obstet
steadfastly
disinfectants
##listed
republicans
underpinnings
mckinsey
3151
pennies
pediatrix
reassured
grieving
deadly
mariners
capsule
clicking
mondavi
overdose
brownsville
bowen
bowes
pelvic
unpledged
unproductive
wheeler
ignition
ignore
mailstation
unbanked
1970s
fccs
cognitive
spokes
oshkoshcorp
efinancial
victus
smokable
renegotiate
renegotiations
##upplied
configure
ucity
stellantis
biomaterials
laminated
alexa
hunger
tyvek
crushed
bumpy
prototypes
awaited
convince
sudan
sudhak
unveil
axles
aesth
hutbot
alleviated
cfos
williamson
dissimilar
bathroom
baja
bauxite
paybacks
whitestonere
mosaic
pitney
rodney
wardro
proximate
intrauterine
interchangeable
metroplex
wipers
guarded
encompassed
submittal
pinpoint
##annual
understaff
ctp
consciously
boomer
midsize
rainy
wilmar
revisiting
superbly
fractionation
fractionators
biodiversity
garda
detectors
reassessed
reassessing
suezmaxes
lyft
foreclosures
cobalt
discharges
honesty
scratching
sandwiches
aquatics
dubbed
ryderview
decommissioned
experimenting
gbp1
sterndrive
##lynx
distorting
albertson
sadler
saddened
stubb
exploiting
exploded
churchill
sparked
photonics
waterfalls
immunization
reestablished
donaldsonville
hesket
kirsten
ogden
thinner
outfits
parameter
fungible
katy
accredited
scandinavian
pollak
a320neo
podcasts
sulfate
maritza
apprised
catalogs
dishwash
nyborg
nurtured
rubun
vetting
byproducts
newborn
reperform
backfilling
violence
disbursement
stockpiling
stockpiles
province
optumrx
kingsford
lunches
pedestrian
rtfkt
incentivizing
necessitates
harnesses
firefighting
reimbursable
inconsistencies
lubrication
rerating
tcv
zipn
subtracted
nonservice
ezstorage
gibson
gibbons
iterate
iterations
iterative
reeves
reimposing
flosser
flossers
curtis
clarkdiet
errors
custodial
kbw
luf
wisely
depreciable
detriment
uncommon
admirable
vigorous
sjwtx
tbwa
ufcw
yuan
rejected
##rioritized
chaotic
revitalize
reinstitute
reinstituting
nimbleness
unleashed
duplication
bancorp
bancshares
dhci
jackets
tribal
prompting
petersburg
joanne
uncovered
unbelievably
btu
btg
hilary
larson
mlp
tasking
sherwin
sheraton
dispersion
anecdotal
diners
hcm
kcma
odyssey
routers
vwp
pregnant
bronco
underestimate
proportions
reconnecting
cyberattacks
harmonization
cugine
duvernay
ducs
tilted
chiller
6131
pretzels
hygienically
pneumatics
i2o
kwikset
nanot
songs
remediated
britta
schlom
nonconsumables
mcginnis
scrubber
dispatchable
subtracting
sirius
##owski
redoubled
monterey
lifesciences
catheters
rebooked
predecessor
cantel
ftcs
gentlemen
husband
husqvar
iberdro
sloping
impeded
acoust
acoustic
indulgence
nonbinding
nonbillable
nonwovens
econiq
presumably
encantada
polyurethanes
ethnicity
ambassadors
mrtp
dpg
hemostatic
hemostasis
kinzley
nsx
ttf
vanderbilt
andersen
andersch
impediment
impediments
hamilton
remittance
remittances
transfemor
intervenors
rozek
freezing
disagree
smriti
protests
selflessness
conveniently
conveniences
ghostbusters
tornadoes
outstripping
bleach
eprm
kerins
lampo
nudura
pakistan
rendering
##360
asymm
resembles
chelada
tragedy
plaintiff
unseason
infinite
antivir
requisite
enclosed
membranes
cyclically
aerodynamics
hendricks
kaminski
vodafone
##hysiology
hazards
havertys
chikungun
cascades
unavailable
breckenridge
accentuated
restraints
fringe
smashbox
biotek
intelliserv
optometry
wheelchairs
reemergence
rerefining
bouillante
botan
bouncing
g600
gowns
honda
osteoarth
rasche
vuitton
inferred
shoreside
prefectures
nonexistent
frigate
dismiss
carbide
instalment
wrangler
cannibalization
supercompu
foreshadowed
nutraceutical
retrocessional
pronouncement
disappointment
tentpole
reenergized
turboprops
oligonucleotide
aromatic
bfg
hockey
nafta
sigma
zhikang
inovance
insourcing
reynosa
exogenous
proppants
complaint
overstated
consensual
unreasonable
socrata
socioeconomic
ammunition
nonqualified
enviro
dissemin
detainee
electrophysiology
patriot
uncomfortable
reinitiated
blossom
circulen
unsurprising
spectrometry
mcdonnell
intimidator
pepsico
slippage
reestimates
##oscopes
mudslide
venezuela
neuromodulation
ubiquitous
inadequate
rolltainer
cpcn
cellero
daimler
daskal
gecas
gianluca
jkm
kiwi
kjcc
kadant
kudos
kasbar
kvochak
lululemon
mismatch
nectarine
nustar
pzena
qingpu
rystad
sverha
sweeny
tbei
taconite
vennam
vrealize
wichita
wodgina
wahpeton
yineng
quieter
proheart
inconvenience
seaborne
analgesics
nephro
suzanne
overachie
invictus
molybdenum
unattractive
intrastate
preplanning
tertiary
liquefied
brunei
crissair
nonproductive
nonalcohol
creditforcomfort
flraa
flamingo
caregiver
smallpox
schottenstein
simonte
handcrafted
postretirement
penneast
curfews
labozzetta
amphibious
precrisis
bioanalytical
derecognition
sorrento
efinancialcareers
sudhakar
whitestonereit
clarkdietrich
husqvarna
iberdrola
transfemoral
chikungunya
osteoarthritis
unsurprisingly
